<pad>	0
<s>	0
</s>	0
<unk>	0
▁t	-0
▁th	-1
▁a	-2
▁i	-3
▁w	-4
▁the	-5
▁s	-6
re	-7
▁o	-8
in	-9
at	-10
nd	-11
er	-12
ou	-13
▁c	-14
▁b	-15
▁m	-16
▁h	-17
ing	-18
▁and	-19
en	-20
▁to	-21
▁p	-22
on	-23
▁f	-24
▁d	-25
an	-26
es	-27
▁of	-28
or	-29
ll	-30
▁in	-31
▁l	-32
ed	-33
is	-34
▁y	-35
it	-36
ar	-37
▁that	-38
▁g	-39
▁we	-40
▁n	-41
om	-42
▁you	-43
as	-44
▁wh	-45
▁it	-46
ic	-47
le	-48
ve	-49
al	-50
▁e	-51
▁be	-52
▁is	-53
ow	-54
us	-55
ut	-56
ion	-57
ot	-58
et	-59
▁re	-60
▁on	-61
▁ha	-62
ent	-63
ct	-64
▁this	-65
ld	-66
ver	-67
▁so	-68
ay	-69
se	-70
all	-71
ro	-72
▁st	-73
st	-74
id	-75
ig	-76
ur	-77
ly	-78
ch	-79
▁he	-80
ke	-81
▁for	-82
ce	-83
▁they	-84
▁was	-85
ra	-86
▁an	-87
im	-88
▁do	-89
▁are	-90
ir	-91
▁u	-92
▁li	-93
th	-94
▁go	-95
ith	-96
op	-97
ally	-98
▁k	-99
▁with	-100
▁have	-101
am	-102
▁se	-103
▁ab	-104
▁but	-105
▁what	-106
▁can	-107
▁as	-108
▁mo	-109
▁-	-110
▁--	-111
ation	-112
▁j	-113
out	-114
ht	-115
▁sh	-116
ol	-117
▁wor	-118
▁ne	-119
▁com	-120
ere	-121
▁at	-122
▁me	-123
ad	-124
very	-125
ould	-126
▁ch	-127
▁there	-128
▁not	-129
▁about	-130
▁r	-131
▁all	-132
ill	-133
ant	-134
ter	-135
ge	-136
il	-137
▁fr	-138
ust	-139
ul	-140
▁som	-141
oo	-142
▁ex	-143
▁my	-144
ers	-145
▁or	-146
▁pro	-147
▁de	-148
use	-149
ight	-150
▁pe	-151
▁one	-152
▁"	-153
▁con	-154
art	-155
▁peop	-156
▁like	-157
▁people	-158
um	-159
ear	-160
▁bec	-161
pp	-162
ck	-163
▁ma	-164
ess	-165
ate	-166
ies	-167
ure	-168
▁if	-169
ity	-170
▁from	-171
ive	-172
est	-173
▁al	-174
▁kn	-175
▁v	-176
▁our	-177
ect	-178
nt	-179
ist	-180
if	-181
ble	-182
qu	-183
▁now	-184
▁just	-185
▁us	-186
▁te	-187
ind	-188
▁out	-189
ink	-190
▁these	-191
▁int	-192
▁know	-193
rou	-194
ause	-195
un	-196
ook	-197
▁sp	-198
od	-199
▁when	-200
▁thing	-201
▁because	-202
▁them	-203
▁see	-204
▁tr	-205
▁who	-206
and	-207
▁very	-208
▁think	-209
ie	-210
▁up	-211
os	-212
her	-213
ort	-214
▁pl	-215
▁get	-216
▁by	-217
▁some	-218
▁how	-219
ci	-220
ich	-221
▁going	-222
▁act	-223
iv	-224
one	-225
ain	-226
▁more	-227
▁1	-228
▁your	-229
▁had	-230
▁im	-231
el	-232
og	-233
▁sa	-234
▁year	-235
▁tim	-236
▁would	-237
▁were	-238
em	-239
▁look	-240
▁which	-241
▁su	-242
▁en	-243
▁their	-244
▁ta	-245
our	-246
ine	-247
00	-248
▁here	-249
▁comp	-250
ment	-251
ame	-252
▁work	-253
▁want	-254
▁really	-255
ast	-256
▁co	-257
ap	-258
▁than	-259
iz	-260
ually	-261
▁le	-262
ous	-263
."	-264
ard	-265
act	-266
▁then	-267
▁world	-268
gh	-269
ack	-270
are	-271
▁every	-272
reat	-273
▁way	-274
ose	-275
hing	-276
▁man	-277
▁per	-278
▁has	-279
▁time	-280
▁un	-281
ans	-282
▁ev	-283
▁oth	-284
ab	-285
▁don	-286
▁qu	-287
▁no	-288
res	-289
ag	-290
▁exp	-291
▁could	-292
▁actually	-293
▁will	-294
▁where	-295
ide	-296
▁fe	-297
▁into	-298
ions	-299
ace	-300
▁ag	-301
▁say	-302
ong	-303
ore	-304
ild	-305
▁did	-306
ence	-307
ud	-308
▁other	-309
▁things	-310
▁years	-311
itt	-312
▁am	-313
▁somet	-314
age	-315
alk	-316
▁any	-317
▁tw	-318
▁af	-319
▁cl	-320
▁right	-321
nder	-322
iff	-323
▁pr	-324
ach	-325
▁new	-326
▁been	-327
▁she	-328
▁make	-329
ical	-330
▁diff	-331
▁happ	-332
▁ar	-333
so	-334
▁well	-335
▁need	-336
ip	-337
▁start	-338
▁over	-339
▁po	-340
▁part	-341
▁fir	-342
▁ro	-343
▁bu	-344
▁2	-345
fe	-346
▁said	-347
red	-348
▁dis	-349
▁something	-350
▁those	-351
▁first	-352
▁imp	-353
ree	-354
ice	-355
ia	-356
own	-357
▁two	-358
▁mu	-359
ry	-360
▁back	-361
ite	-362
▁lo	-363
ount	-364
ory	-365
pt	-366
round	-367
▁chan	-368
orm	-369
▁much	-370
▁got	-371
ens	-372
▁call	-373
olog	-374
ign	-375
▁also	-376
▁differe	-377
ater	-378
de	-379
ass	-380
ff	-381
▁most	-382
ound	-383
▁ph	-384
▁kind	-385
sel	-386
cent	-387
ittle	-388
ib	-389
▁lot	-390
▁little	-391
▁spe	-392
▁ac	-393
▁cont	-394
ue	-395
▁talk	-396
ac	-397
ght	-398
▁even	-399
▁bet	-400
ome	-401
ple	-402
way	-403
ult	-404
▁des	-405
ber	-406
▁his	-407
▁only	-408
ves	-409
▁res	-410
king	-411
▁ad	-412
vel	-413
▁under	-414
▁sy	-415
ell	-416
▁life	-417
ving	-418
ody	-419
ru	-420
ated	-421
▁day	-422
co	-423
▁many	-424
▁bl	-425
rain	-426
▁hum	-427
ep	-428
able	-429
▁take	-430
▁ind	-431
ations	-432
▁her	-433
▁let	-434
▁br	-435
▁good	-436
ms	-437
▁different	-438
ick	-439
ph	-440
▁comm	-441
▁does	-442
ial	-443
ict	-444
other	-445
rough	-446
ish	-447
ood	-448
▁real	-449
int	-450
▁around	-451
ase	-452
▁through	-453
ire	-454
▁ide	-455
▁inter	-456
du	-457
▁down	-458
▁may	-459
▁put	-460
pl	-461
▁sc	-462
ents	-463
▁pre	-464
▁♫	-465
urn	-466
cess	-467
▁em	-468
▁use	-469
▁why	-470
▁show	-471
▁ra	-472
▁being	-473
▁tell	-474
day	-475
ark	-476
▁off	-477
▁fl	-478
form	-479
ors	-480
▁sm	-481
ress	-482
ob	-483
▁same	-484
ade	-485
▁inc	-486
ible	-487
▁too	-488
ether	-489
▁thou	-490
▁happen	-491
ary	-492
▁gen	-493
▁count	-494
▁try	-495
pe	-496
ak	-497
▁come	-498
▁proble	-499
ject	-500
▁great	-501
ance	-502
ath	-503
▁big	-504
wn	-505
▁fact	-506
chn	-507
ars	-508
stem	-509
xt	-510
▁three	-511
ys	-512
ful	-513
▁human	-514
ang	-515
iver	-516
ual	-517
▁gr	-518
▁techn	-519
▁find	-520
▁doing	-521
ning	-522
▁tra	-523
ile	-524
▁wr	-525
ces	-526
▁pers	-527
ord	-528
we	-529
▁app	-530
▁sur	-531
ting	-532
per	-533
▁thank	-534
▁gu	-535
▁again	-536
ved	-537
ric	-538
▁after	-539
ower	-540
▁system	-541
ically	-542
▁percent	-543
▁dec	-544
▁build	-545
▁stud	-546
ied	-547
▁sim	-548
▁child	-549
illion	-550
nds	-551
ology	-552
thing	-553
body	-554
igh	-555
fore	-556
ren	-557
▁wom	-558
▁called	-559
ons	-560
▁inv	-561
self	-562
▁rem	-563
be	-564
▁today	-565
cial	-566
▁quest	-567
▁inst	-568
▁long	-569
ition	-570
▁exper	-571
▁bel	-572
▁fo	-573
▁made	-574
ious	-575
ities	-576
▁ear	-577
▁lear	-578
ics	-579
▁should	-580
▁own	-581
ating	-582
▁ob	-583
▁car	-584
▁import	-585
▁turn	-586
ize	-587
ft	-588
te	-589
▁underst	-590
▁sci	-591
ates	-592
▁hel	-593
les	-594
oss	-595
▁gl	-596
▁bas	-597
▁sch	-598
▁change	-599
con	-600
wh	-601
ian	-602
▁didn	-603
▁last	-604
▁bo	-605
erest	-606
ub	-607
▁design	-608
▁another	-609
▁feel	-610
▁cour	-611
ty	-612
▁mean	-613
▁started	-614
▁ke	-615
▁end	-616
▁ask	-617
▁person	-618
av	-619
▁thought	-620
ction	-621
▁important	-622
000	-623
▁cr	-624
▁him	-625
▁idea	-626
als	-627
▁its	-628
▁interest	-629
▁creat	-630
▁gra	-631
▁brain	-632
▁rel	-633
▁trans	-634
ail	-635
▁play	-636
▁before	-637
?"	-638
▁ins	-639
gan	-640
▁exam	-641
▁fu	-642
▁understand	-643
▁coll	-644
▁never	-645
▁better	-646
▁help	-647
▁went	-648
▁dr	-649
ool	-650
▁give	-651
▁might	-652
,000	-653
ution	-654
▁pol	-655
▁mon	-656
▁3	-657
▁cons	-658
ily	-659
▁imag	-660
ists	-661
ough	-662
▁bit	-663
ise	-664
▁la	-665
ility	-666
▁problem	-667
▁found	-668
▁point	-669
▁sl	-670
▁power	-671
ular	-672
▁able	-673
▁still	-674
▁sol	-675
▁plan	-676
▁produ	-677
▁course	-678
▁tog	-679
▁belie	-680
▁story	-681
▁together	-682
▁commun	-683
ros	-684
▁ele	-685
▁fam	-686
▁school	-687
▁num	-688
lic	-689
▁next	-690
▁ent	-691
atter	-692
▁few	-693
ert	-694
kes	-695
▁high	-696
▁kid	-697
▁each	-698
▁hu	-699
ix	-700
▁med	-701
▁eng	-702
oth	-703
▁water	-704
▁art	-705
eric	-706
▁ago	-707
alth	-708
ited	-709
▁str	-710
▁place	-711
▁sort	-712
▁came	-713
erg	-714
▁dat	-715
uc	-716
atch	-717
▁mod	-718
velop	-719
mo	-720
▁fin	-721
ave	-722
ween	-723
▁cent	-724
arch	-725
▁19	-726
▁ser	-727
▁ter	-728
▁comple	-729
▁learn	-730
▁20	-731
ather	-732
▁seco	-733
▁between	-734
ense	-735
▁rec	-736
▁used	-737
▁women	-738
read	-739
▁technology	-740
iss	-741
▁develop	-742
ized	-743
▁ext	-744
ward	-745
ness	-746
▁four	-747
▁met	-748
ience	-749
old	-750
▁ed	-751
▁min	-752
▁question	-753
▁data	-754
▁nat	-755
▁op	-756
▁ok	-757
▁small	-758
▁10	-759
▁att	-760
ork	-761
▁love	-762
▁cre	-763
,"	-764
ures	-765
▁mom	-766
▁looking	-767
▁old	-768
▁maybe	-769
ines	-770
ets	-771
▁grow	-772
▁comput	-773
az	-774
ways	-775
▁americ	-776
▁care	-777
ram	-778
▁partic	-779
▁el	-780
▁example	-781
ven	-782
ger	-783
▁doesn	-784
ific	-785
▁move	-786
▁eff	-787
▁light	-788
ered	-789
▁done	-790
▁word	-791
▁read	-792
▁wanted	-793
▁ever	-794
▁rep	-795
ced	-796
▁bi	-797
▁far	-798
▁lar	-799
ute	-800
▁mus	-801
iness	-802
ably	-803
cept	-804
▁cap	-805
▁hard	-806
▁beh	-807
▁bus	-808
cy	-809
▁stu	-810
▁cell	-811
▁whole	-812
▁inform	-813
▁reas	-814
conom	-815
▁war	-816
▁live	-817
▁children	-818
▁chang	-819
ross	-820
▁health	-821
▁second	-822
▁trying	-823
▁econom	-824
▁poss	-825
ings	-826
▁million	-827
ational	-828
▁sk	-829
▁less	-830
▁expl	-831
▁giv	-832
ative	-833
oney	-834
▁gener	-835
▁always	-836
selves	-837
ands	-838
ah	-839
▁supp	-840
▁working	-841
ote	-842
▁away	-843
▁project	-844
ope	-845
ism	-846
▁country	-847
▁believe	-848
▁cor	-849
ps	-850
▁ca	-851
▁univer	-852
▁everything	-853
ments	-854
▁5	-855
..	-856
▁resp	-857
cer	-858
▁afric	-859
ural	-860
▁book	-861
▁five	-862
ird	-863
ne	-864
▁space	-865
ries	-866
▁sub	-867
▁open	-868
▁form	-869
▁using	-870
▁number	-871
▁anim	-872
▁organ	-873
▁cou	-874
▁vis	-875
▁run	-876
▁frie	-877
▁pict	-878
no	-879
▁home	-880
▁inf	-881
nect	-882
vers	-883
ruct	-884
▁pres	-885
hip	-886
▁information	-887
▁means	-888
▁thinking	-889
▁intern	-890
▁money	-891
ead	-892
▁pub	-893
ks	-894
▁took	-895
▁prob	-896
▁lead	-897
gin	-898
▁times	-899
▁acc	-900
▁sing	-901
▁hand	-902
▁compan	-903
led	-904
vern	-905
▁4	-906
▁kids	-907
▁create	-908
gg	-909
▁prog	-910
▁reg	-911
▁doll	-912
cr	-913
its	-914
ues	-915
▁spec	-916
▁walk	-917
▁teach	-918
aces	-919
▁become	-920
ract	-921
▁process	-922
▁mind	-923
ital	-924
ten	-925
▁fut	-926
▁govern	-927
air	-928
ock	-929
▁glob	-930
▁head	-931
▁left	-932
▁mark	-933
▁cle	-934
▁interesting	-935
alf	-936
ale	-937
▁best	-938
ouse	-939
▁getting	-940
▁energ	-941
▁social	-942
▁set	-943
aut	-944
▁enough	-945
sw	-946
▁quite	-947
▁conf	-948
pr	-949
▁grou	-950
▁future	-951
▁pat	-952
iew	-953
ention	-954
▁food	-955
▁month	-956
▁cam	-957
▁wo	-958
ull	-959
iting	-960
▁comes	-961
▁jo	-962
▁cur	-963
▁contro	-964
ew	-965
▁probably	-966
▁fun	-967
▁earth	-968
▁making	-969
ories	-970
▁energy	-971
▁z	-972
ont	-973
▁city	-974
▁connect	-975
▁add	-976
▁without	-977
▁sign	-978
▁sense	-979
▁happened	-980
▁gre	-981
▁talking	-982
▁answ	-983
ety	-984
▁pass	-985
▁job	-986
▁science	-987
▁men	-988
▁pop	-989
▁building	-990
ever	-991
▁youn	-992
▁pret	-993
▁told	-994
ertain	-995
▁elect	-996
▁countries	-997
▁phys	-998
ier	-999
▁body	-1000
▁hist	-1001
▁keep	-1002
ts	-1003
▁room	-1004
▁char	-1005
▁sw	-1006
▁begin	-1007
ately	-1008
vir	-1009
▁model	-1010
▁moment	-1011
▁stuff	-1012
cus	-1013
▁eas	-1014
▁wee	-1015
▁pretty	-1016
▁air	-1017
▁prot	-1018
ices	-1019
▁half	-1020
▁allow	-1021
▁side	-1022
▁soci	-1023
▁col	-1024
▁rese	-1025
▁reason	-1026
ient	-1027
ying	-1028
▁beaut	-1029
▁business	-1030
nce	-1031
▁opp	-1032
▁dist	-1033
▁anything	-1034
▁top	-1035
▁such	-1036
ner	-1037
▁else	-1038
▁coming	-1039
▁dollars	-1040
me	-1041
▁stop	-1042
▁lives	-1043
▁ty	-1044
▁par	-1045
▁pie	-1046
▁imagine	-1047
viron	-1048
▁amaz	-1049
▁global	-1050
▁scient	-1051
▁environ	-1052
arr	-1053
▁across	-1054
gs	-1055
ogra	-1056
▁bad	-1057
ember	-1058
▁once	-1059
▁sound	-1060
▁saw	-1061
▁ord	-1062
▁later	-1063
▁research	-1064
▁educ	-1065
▁wa	-1066
▁matter	-1067
where	-1068
▁aut	-1069
▁hope	-1070
▁det	-1071
ality	-1072
▁stand	-1073
uring	-1074
▁bring	-1075
▁young	-1076
▁rob	-1077
▁family	-1078
lf	-1079
most	-1080
fect	-1081
ince	-1082
▁while	-1083
idd	-1084
ior	-1085
▁makes	-1086
▁seen	-1087
▁ey	-1088
▁living	-1089
▁face	-1090
▁says	-1091
▁having	-1092
▁yet	-1093
io	-1094
▁200	-1095
▁val	-1096
▁fore	-1097
▁simple	-1098
ided	-1099
▁fig	-1100
▁particular	-1101
▁asked	-1102
▁share	-1103
ortun	-1104
olution	-1105
ream	-1106
▁hour	-1107
man	-1108
▁list	-1109
▁africa	-1110
▁experience	-1111
▁bre	-1112
▁case	-1113
ken	-1114
▁cult	-1115
▁sit	-1116
▁prof	-1117
▁ways	-1118
imes	-1119
▁goes	-1120
▁six	-1121
▁equ	-1122
▁mil	-1123
▁watch	-1124
▁happens	-1125
▁mor	-1126
▁complete	-1127
irl	-1128
ots	-1129
ization	-1130
▁days	-1131
▁effect	-1132
▁almost	-1133
llow	-1134
ught	-1135
▁both	-1136
▁computer	-1137
▁wonder	-1138
▁thous	-1139
▁ref	-1140
▁phot	-1141
▁planet	-1142
▁nothing	-1143
▁picture	-1144
the	-1145
▁basically	-1146
▁lab	-1147
▁mach	-1148
▁states	-1149
▁polit	-1150
▁sure	-1151
oc	-1152
▁public	-1153
▁whether	-1154
▁remember	-1155
▁loc	-1156
ready	-1157
▁single	-1158
ott	-1159
▁environment	-1160
iter	-1161
▁level	-1162
▁mem	-1163
▁test	-1164
▁inside	-1165
▁dise	-1166
▁already	-1167
▁rest	-1168
ilt	-1169
ina	-1170
▁within	-1171
▁problems	-1172
allen	-1173
▁vide	-1174
▁certain	-1175
ash	-1176
arent	-1177
ants	-1178
▁def	-1179
▁okay	-1180
▁lang	-1181
▁age	-1182
med	-1183
aps	-1184
ime	-1185
▁unt	-1186
▁saying	-1187
▁someone	-1188
orn	-1189
▁community	-1190
ank	-1191
ograph	-1192
▁langu	-1193
ulation	-1194
▁music	-1195
▁state	-1196
▁ge	-1197
na	-1198
▁hear	-1199
▁sou	-1200
cl	-1201
▁everybody	-1202
unch	-1203
▁pain	-1204
▁control	-1205
▁suc	-1206
▁looked	-1207
▁billion	-1208
ins	-1209
▁girl	-1210
▁answer	-1211
▁disco	-1212
▁che	-1213
▁history	-1214
ases	-1215
▁possible	-1216
ivid	-1217
▁often	-1218
osed	-1219
▁ass	-1220
▁exact	-1221
▁contin	-1222
▁challen	-1223
▁incred	-1224
ury	-1225
▁amazing	-1226
▁ideas	-1227
less	-1228
▁iss	-1229
▁yes	-1230
▁cost	-1231
▁treat	-1232
▁wrong	-1233
▁looks	-1234
work	-1235
▁dev	-1236
▁heart	-1237
imate	-1238
itive	-1239
▁product	-1240
▁dire	-1241
▁true	-1242
▁beautif	-1243
ern	-1244
ange	-1245
▁sometimes	-1246
▁guy	-1247
▁sec	-1248
▁net	-1249
▁myself	-1250
▁law	-1251
▁vir	-1252
▁ted	-1253
oice	-1254
▁united	-1255
ield	-1256
▁news	-1257
▁night	-1258
▁di	-1259
▁mag	-1260
▁large	-1261
▁months	-1262
side	-1263
nding	-1264
▁instead	-1265
▁self	-1266
▁adv	-1267
▁nor	-1268
ware	-1269
▁kill	-1270
▁since	-1271
ndred	-1272
▁stre	-1273
▁hundred	-1274
lish	-1275
pect	-1276
ters	-1277
ages	-1278
cle	-1279
ron	-1280
ering	-1281
aterial	-1282
▁full	-1283
▁class	-1284
▁heard	-1285
▁until	-1286
▁entire	-1287
▁group	-1288
▁individ	-1289
▁wasn	-1290
▁cond	-1291
▁figure	-1292
▁government	-1293
oy	-1294
bers	-1295
ians	-1296
▁tre	-1297
▁15	-1298
▁fil	-1299
▁works	-1300
utes	-1301
▁house	-1302
▁terr	-1303
▁cells	-1304
▁words	-1305
▁beautiful	-1306
uro	-1307
▁isn	-1308
▁friends	-1309
ivity	-1310
▁god	-1311
▁100	-1312
▁mic	-1313
ired	-1314
▁exc	-1315
▁cra	-1316
▁ris	-1317
▁built	-1318
vious	-1319
▁order	-1320
ives	-1321
▁aud	-1322
land	-1323
iddle	-1324
▁incre	-1325
▁pay	-1326
▁woman	-1327
br	-1328
▁30	-1329
▁6	-1330
▁appro	-1331
▁couple	-1332
▁must	-1333
▁ret	-1334
▁cancer	-1335
▁individual	-1336
▁internet	-1337
ene	-1338
▁result	-1339
get	-1340
▁front	-1341
▁video	-1342
▁material	-1343
▁const	-1344
▁'	-1345
eah	-1346
▁dra	-1347
▁somebody	-1348
▁50	-1349
▁nature	-1350
▁line	-1351
▁abs	-1352
▁middle	-1353
▁cal	-1354
up	-1355
▁follow	-1356
▁market	-1357
▁education	-1358
▁deep	-1359
▁land	-1360
▁species	-1361
aper	-1362
▁quick	-1363
▁piece	-1364
▁language	-1365
▁past	-1366
ustr	-1367
▁completely	-1368
line	-1369
▁name	-1370
▁places	-1371
▁though	-1372
to	-1373
▁av	-1374
▁collect	-1375
▁decided	-1376
atic	-1377
▁invest	-1378
tern	-1379
▁dru	-1380
▁became	-1381
▁view	-1382
▁object	-1383
▁knew	-1384
▁inno	-1385
▁exactly	-1386
▁society	-1387
ental	-1388
bs	-1389
ling	-1390
▁experim	-1391
▁stories	-1392
▁9	-1393
▁free	-1394
▁tool	-1395
▁students	-1396
▁oce	-1397
▁everyone	-1398
▁black	-1399
▁study	-1400
▁train	-1401
▁engine	-1402
he	-1403
omes	-1404
▁huge	-1405
▁taking	-1406
▁learned	-1407
uck	-1408
▁happening	-1409
gest	-1410
ats	-1411
ond	-1412
▁red	-1413
▁turns	-1414
cing	-1415
▁bab	-1416
▁america	-1417
ined	-1418
▁mother	-1419
▁id	-1420
▁mess	-1421
▁bro	-1422
▁gets	-1423
▁animals	-1424
▁success	-1425
ared	-1426
▁green	-1427
▁third	-1428
▁deal	-1429
ator	-1430
▁itself	-1431
▁universe	-1432
▁ant	-1433
ibly	-1434
ision	-1435
▁against	-1436
▁mass	-1437
ien	-1438
▁pos	-1439
▁struct	-1440
▁miss	-1441
ane	-1442
▁arch	-1443
▁close	-1444
▁rather	-1445
▁har	-1446
▁meet	-1447
▁ones	-1448
▁company	-1449
▁along	-1450
▁questions	-1451
li	-1452
▁leg	-1453
ients	-1454
▁ourselves	-1455
▁themselves	-1456
▁univers	-1457
▁opportun	-1458
▁clear	-1459
▁bra	-1460
ional	-1461
ape	-1462
dd	-1463
▁kinds	-1464
▁prov	-1465
▁behav	-1466
itting	-1467
▁mar	-1468
rop	-1469
▁wind	-1470
ogn	-1471
▁hold	-1472
▁sex	-1473
▁meas	-1474
sy	-1475
vation	-1476
▁dep	-1477
▁rev	-1478
▁hy	-1479
acter	-1480
▁yeah	-1481
▁complex	-1482
▁8	-1483
row	-1484
etic	-1485
▁team	-1486
ident	-1487
▁mill	-1488
▁couldn	-1489
▁step	-1490
▁disease	-1491
icult	-1492
▁math	-1493
▁india	-1494
▁minutes	-1495
aster	-1496
▁jour	-1497
ones	-1498
▁ill	-1499
▁hours	-1500
▁parent	-1501
▁created	-1502
face	-1503
▁sun	-1504
...	-1505
▁others	-1506
▁norm	-1507
▁pred	-1508
▁focus	-1509
▁protect	-1510
haps	-1511
▁ste	-1512
ability	-1513
▁worked	-1514
▁perhaps	-1515
▁fund	-1516
▁es	-1517
ctor	-1518
▁relations	-1519
▁thousands	-1520
▁program	-1521
▁vi	-1522
▁fly	-1523
▁rad	-1524
att	-1525
▁south	-1526
▁bott	-1527
▁early	-1528
▁listen	-1529
rib	-1530
ming	-1531
urs	-1532
▁ve	-1533
▁colle	-1534
▁expect	-1535
▁liter	-1536
▁mot	-1537
ush	-1538
▁finally	-1539
ames	-1540
▁lots	-1541
not	-1542
▁won	-1543
▁least	-1544
▁guys	-1545
▁difficult	-1546
▁pot	-1547
wards	-1548
cc	-1549
▁dem	-1550
▁field	-1551
▁game	-1552
▁exist	-1553
▁natural	-1554
ples	-1555
▁chr	-1556
▁ho	-1557
▁happy	-1558
▁da	-1559
▁cir	-1560
▁death	-1561
▁network	-1562
▁speak	-1563
▁recent	-1564
istic	-1565
▁var	-1566
ake	-1567
▁fre	-1568
ither	-1569
▁lim	-1570
▁oper	-1571
▁record	-1572
ium	-1573
ially	-1574
▁gave	-1575
▁seven	-1576
▁outside	-1577
▁systems	-1578
ented	-1579
▁sens	-1580
ination	-1581
▁fail	-1582
▁taken	-1583
▁extra	-1584
▁amount	-1585
▁learning	-1586
olved	-1587
▁euro	-1588
▁super	-1589
ider	-1590
▁obvious	-1591
▁york	-1592
▁difference	-1593
cul	-1594
▁machine	-1595
ns	-1596
▁cities	-1597
▁ple	-1598
▁china	-1599
▁changed	-1600
▁support	-1601
▁interact	-1602
▁cut	-1603
utions	-1604
▁american	-1605
gen	-1606
▁dig	-1607
ential	-1608
▁during	-1609
iqu	-1610
▁typ	-1611
▁incl	-1612
▁leave	-1613
▁behind	-1614
ological	-1615
well	-1616
▁del	-1617
▁area	-1618
vered	-1619
▁given	-1620
▁...	-1621
▁relationship	-1622
▁dream	-1623
▁century	-1624
ature	-1625
▁short	-1626
▁demo	-1627
▁hands	-1628
▁squ	-1629
▁eyes	-1630
▁pick	-1631
ster	-1632
▁wall	-1633
▁ident	-1634
▁turned	-1635
▁common	-1636
▁grand	-1637
▁europe	-1638
▁low	-1639
▁sym	-1640
aking	-1641
▁local	-1642
▁arg	-1643
ted	-1644
ides	-1645
▁eight	-1646
▁communic	-1647
▁beginning	-1648
ully	-1649
▁yourself	-1650
ased	-1651
▁behavior	-1652
era	-1653
▁blue	-1654
▁north	-1655
▁reach	-1656
▁companies	-1657
▁easy	-1658
▁whatever	-1659
▁non	-1660
olute	-1661
▁ocean	-1662
▁takes	-1663
▁seeing	-1664
▁explain	-1665
▁tem	-1666
▁moving	-1667
▁population	-1668
inary	-1669
▁sent	-1670
▁trad	-1671
what	-1672
▁oil	-1673
▁access	-1674
▁stay	-1675
verage	-1676
▁extre	-1677
▁break	-1678
▁needed	-1679
▁maj	-1680
▁began	-1681
▁event	-1682
▁impro	-1683
▁intell	-1684
▁absolute	-1685
astic	-1686
▁serv	-1687
ply	-1688
inal	-1689
year	-1690
▁tot	-1691
▁media	-1692
▁12	-1693
sych	-1694
▁patter	-1695
▁cy	-1696
itions	-1697
▁culture	-1698
▁audience	-1699
ges	-1700
▁instit	-1701
▁opt	-1702
elt	-1703
ison	-1704
pped	-1705
▁simply	-1706
▁perfect	-1707
▁emot	-1708
▁terms	-1709
ney	-1710
▁needs	-1711
▁psych	-1712
ude	-1713
▁occ	-1714
aring	-1715
▁father	-1716
▁white	-1717
▁powerful	-1718
itch	-1719
▁parts	-1720
▁cannot	-1721
ret	-1722
▁viol	-1723
▁paper	-1724
▁longer	-1725
▁realized	-1726
▁wonderful	-1727
▁week	-1728
▁civ	-1729
▁ess	-1730
idence	-1731
▁national	-1732
ode	-1733
▁18	-1734
▁famil	-1735
▁image	-1736
▁poor	-1737
▁friend	-1738
▁reality	-1739
ump	-1740
▁ap	-1741
▁chem	-1742
▁major	-1743
▁micro	-1744
▁surv	-1745
▁humans	-1746
▁special	-1747
ton	-1748
iving	-1749
▁robot	-1750
▁economic	-1751
pid	-1752
▁fall	-1753
▁size	-1754
▁parents	-1755
cra	-1756
▁emb	-1757
▁fish	-1758
▁repres	-1759
▁center	-1760
▁press	-1761
▁sea	-1762
▁resour	-1763
▁perform	-1764
▁oh	-1765
▁priv	-1766
▁phone	-1767
▁tried	-1768
how	-1769
▁felt	-1770
▁blood	-1771
▁pract	-1772
▁buy	-1773
cious	-1774
▁conv	-1775
▁dark	-1776
▁ground	-1777
ivers	-1778
▁approach	-1779
▁surpr	-1780
▁quickly	-1781
ised	-1782
hood	-1783
fully	-1784
▁personal	-1785
port	-1786
rought	-1787
▁either	-1788
▁40	-1789
ibility	-1790
▁growth	-1791
▁gone	-1792
▁requ	-1793
ged	-1794
▁situ	-1795
▁present	-1796
bo	-1797
osp	-1798
▁opportunity	-1799
▁spend	-1800
els	-1801
▁strong	-1802
▁political	-1803
itect	-1804
▁fight	-1805
▁interested	-1806
you	-1807
▁sum	-1808
ledge	-1809
▁spent	-1810
crib	-1811
ilar	-1812
▁feed	-1813
▁leaders	-1814
mer	-1815
▁architect	-1816
▁transform	-1817
▁key	-1818
▁fear	-1819
▁scale	-1820
▁climate	-1821
ising	-1822
▁recogn	-1823
ived	-1824
▁near	-1825
▁weeks	-1826
▁consum	-1827
▁travel	-1828
▁measure	-1829
▁risk	-1830
rodu	-1831
▁direct	-1832
▁extreme	-1833
▁profess	-1834
ife	-1835
▁sitting	-1836
▁eat	-1837
▁vers	-1838
▁ability	-1839
app	-1840
▁known	-1841
avor	-1842
▁enc	-1843
dden	-1844
▁sil	-1845
▁bill	-1846
▁medic	-1847
ators	-1848
▁wouldn	-1849
oms	-1850
▁sudden	-1851
▁economy	-1852
▁incredible	-1853
ex	-1854
▁street	-1855
▁changes	-1856
ax	-1857
▁bar	-1858
▁mult	-1859
▁rich	-1860
▁predict	-1861
▁respons	-1862
ains	-1863
urb	-1864
▁pen	-1865
▁lost	-1866
▁orig	-1867
▁prin	-1868
▁shows	-1869
▁surface	-1870
▁technolog	-1871
▁obs	-1872
▁insp	-1873
▁slow	-1874
▁impact	-1875
▁dest	-1876
▁cool	-1877
▁morning	-1878
sh	-1879
rent	-1880
▁challenge	-1881
▁win	-1882
▁fast	-1883
bor	-1884
end	-1885
ards	-1886
izing	-1887
▁nice	-1888
▁scientists	-1889
▁write	-1890
cially	-1891
▁animal	-1892
ouch	-1893
▁cop	-1894
▁ice	-1895
▁vol	-1896
oh	-1897
▁caus	-1898
▁rock	-1899
▁based	-1900
▁value	-1901
of	-1902
▁dna	-1903
▁feet	-1904
▁growing	-1905
▁pur	-1906
▁die	-1907
▁areas	-1908
▁civil	-1909
zy	-1910
ony	-1911
▁feeling	-1912
▁patients	-1913
▁sat	-1914
lt	-1915
▁hosp	-1916
ively	-1917
▁indust	-1918
iny	-1919
ows	-1920
ral	-1921
▁ce	-1922
▁hor	-1923
▁structure	-1924
by	-1925
▁soft	-1926
▁hundreds	-1927
▁physical	-1928
▁evolution	-1929
ove	-1930
▁arm	-1931
▁foot	-1932
hor	-1933
anger	-1934
entially	-1935
▁similar	-1936
ument	-1937
▁draw	-1938
▁pull	-1939
▁bottom	-1940
com	-1941
ales	-1942
▁anal	-1943
▁redu	-1944
▁average	-1945
▁comb	-1946
▁force	-1947
▁color	-1948
▁neigh	-1949
▁voice	-1950
▁photograph	-1951
▁anyone	-1952
▁box	-1953
▁born	-1954
▁development	-1955
▁film	-1956
▁numbers	-1957
▁bene	-1958
▁rele	-1959
▁brought	-1960
▁serious	-1961
▁25	-1962
▁sho	-1963
▁mole	-1964
▁literally	-1965
▁pa	-1966
ny	-1967
▁text	-1968
▁attention	-1969
▁movement	-1970
▁understanding	-1971
ler	-1972
ateg	-1973
▁unf	-1974
▁ball	-1975
▁camp	-1976
▁main	-1977
▁realize	-1978
▁experiment	-1979
eg	-1980
erm	-1981
ule	-1982
▁scre	-1983
uth	-1984
▁stage	-1985
lect	-1986
▁map	-1987
ustain	-1988
▁sle	-1989
▁knowledge	-1990
▁ach	-1991
▁deg	-1992
▁soon	-1993
▁vill	-1994
ression	-1995
▁millions	-1996
▁absolutely	-1997
▁technologies	-1998
acy	-1999
▁hot	-2000
▁stra	-2001
▁wrote	-2002
▁tele	-2003
▁guess	-2004
▁running	-2005
▁dead	-2006
▁mount	-2007
ford	-2008
▁books	-2009
▁meaning	-2010
▁fac	-2011
▁giving	-2012
ified	-2013
▁starting	-2014
▁crit	-2015
▁mov	-2016
▁polic	-2017
bon	-2018
▁ir	-2019
▁prom	-2020
▁spread	-2021
ids	-2022
▁seems	-2023
ored	-2024
▁alone	-2025
par	-2026
▁sour	-2027
▁flo	-2028
▁tradition	-2029
▁forest	-2030
▁forward	-2031
▁developed	-2032
ned	-2033
▁path	-2034
ption	-2035
▁cars	-2036
▁miles	-2037
▁tools	-2038
▁favor	-2039
▁includ	-2040
▁circ	-2041
▁current	-2042
▁stat	-2043
▁images	-2044
bit	-2045
ploy	-2046
▁fundam	-2047
▁telling	-2048
aged	-2049
ero	-2050
omet	-2051
▁depe	-2052
▁post	-2053
▁relig	-2054
▁electric	-2055
▁hig	-2056
▁repl	-2057
▁road	-2058
▁issue	-2059
▁theory	-2060
▁describ	-2061
▁revolution	-2062
▁fire	-2063
▁touch	-2064
▁nobody	-2065
ency	-2066
▁visual	-2067
lu	-2068
ging	-2069
▁baby	-2070
oud	-2071
por	-2072
▁hon	-2073
aw	-2074
▁er	-2075
ills	-2076
▁sell	-2077
▁girls	-2078
▁proper	-2079
ift	-2080
iod	-2081
▁sn	-2082
▁among	-2083
▁compet	-2084
▁online	-2085
▁recently	-2086
chan	-2087
▁web	-2088
▁period	-2089
ggest	-2090
▁suff	-2091
▁talked	-2092
▁gives	-2093
▁issues	-2094
▁suggest	-2095
▁sustain	-2096
▁intellig	-2097
▁emp	-2098
ensive	-2099
▁modern	-2100
▁type	-2101
▁worth	-2102
▁chance	-2103
▁convers	-2104
ades	-2105
▁est	-2106
▁gal	-2107
go	-2108
▁dou	-2109
▁ult	-2110
▁avail	-2111
▁medical	-2112
▁industry	-2113
▁arr	-2114
amp	-2115
▁rul	-2116
▁achie	-2117
▁truth	-2118
▁general	-2119
▁track	-2120
▁mathem	-2121
▁normal	-2122
▁english	-2123
▁innovation	-2124
▁university	-2125
amed	-2126
vent	-2127
▁sold	-2128
▁showed	-2129
pecially	-2130
▁solution	-2131
▁affect	-2132
▁except	-2133
ilities	-2134
▁especially	-2135
▁fur	-2136
ung	-2137
▁rate	-2138
▁attack	-2139
ances	-2140
▁subject	-2141
▁developing	-2142
▁discovered	-2143
▁phil	-2144
▁prop	-2145
iant	-2146
▁capital	-2147
gn	-2148
▁benef	-2149
▁poll	-2150
▁concept	-2151
▁creating	-2152
▁resources	-2153
▁fa	-2154
head	-2155
ites	-2156
▁fem	-2157
▁lay	-2158
▁park	-2159
▁sever	-2160
▁experien	-2161
▁vac	-2162
urity	-2163
▁obviously	-2164
asing	-2165
ished	-2166
▁save	-2167
po	-2168
asc	-2169
▁boy	-2170
eed	-2171
ique	-2172
▁song	-2173
▁react	-2174
▁computers	-2175
▁aw	-2176
imens	-2177
▁goog	-2178
▁solve	-2179
▁designed	-2180
ug	-2181
ther	-2182
▁eye	-2183
▁patient	-2184
▁reasons	-2185
▁situation	-2186
▁plant	-2187
like	-2188
▁seem	-2189
▁smart	-2190
▁report	-2191
▁anybody	-2192
ped	-2193
▁cit	-2194
▁haven	-2195
▁search	-2196
▁asking	-2197
▁sleep	-2198
▁ast	-2199
phere	-2200
▁available	-2201
come	-2202
ences	-2203
▁safe	-2204
▁tiny	-2205
▁solar	-2206
▁mechan	-2207
▁compass	-2208
▁playing	-2209
▁produce	-2210
ival	-2211
yond	-2212
▁groups	-2213
▁knows	-2214
▁peace	-2215
▁changing	-2216
▁dom	-2217
▁choo	-2218
▁drive	-2219
▁several	-2220
▁evidence	-2221
▁led	-2222
▁shape	-2223
▁beyond	-2224
▁incredibly	-2225
ma	-2226
▁imm	-2227
▁generation	-2228
▁ox	-2229
▁drugs	-2230
▁trust	-2231
ify	-2232
unt	-2233
▁port	-2234
ipp	-2235
erence	-2236
▁journey	-2237
▁pictures	-2238
▁din	-2239
▁neg	-2240
▁emerg	-2241
▁ec	-2242
▁bigger	-2243
▁involved	-2244
▁rain	-2245
▁table	-2246
▁message	-2247
erv	-2248
▁fair	-2249
▁office	-2250
room	-2251
▁flu	-2252
▁carbon	-2253
▁aren	-2254
▁danger	-2255
ires	-2256
▁rights	-2257
do	-2258
iction	-2259
▁becomes	-2260
▁drug	-2261
▁199	-2262
inese	-2263
oices	-2264
▁ver	-2265
ister	-2266
▁send	-2267
▁putting	-2268
▁bird	-2269
▁citiz	-2270
▁choice	-2271
▁sounds	-2272
▁mob	-2273
▁nine	-2274
▁flow	-2275
▁defin	-2276
▁towards	-2277
yn	-2278
str	-2279
book	-2280
▁bed	-2281
▁google	-2282
▁basic	-2283
▁lived	-2284
▁likely	-2285
apt	-2286
▁lad	-2287
▁digital	-2288
▁lea	-2289
istan	-2290
▁cris	-2291
arily	-2292
ishing	-2293
let	-2294
here	-2295
ze	-2296
▁son	-2297
▁indeed	-2298
▁necess	-2299
▁clos	-2300
▁chinese	-2301
▁function	-2302
▁certainly	-2303
ucle	-2304
▁cross	-2305
lo	-2306
ips	-2307
fort	-2308
▁breat	-2309
▁speed	-2310
▁writing	-2311
▁compassion	-2312
▁60	-2313
lict	-2314
oring	-2315
▁security	-2316
▁marr	-2317
oph	-2318
▁died	-2319
▁rece	-2320
▁stru	-2321
ik	-2322
ese	-2323
light	-2324
▁democra	-2325
▁international	-2326
une	-2327
▁schools	-2328
▁tend	-2329
▁princi	-2330
▁extraord	-2331
▁software	-2332
▁potential	-2333
xic	-2334
▁neighbor	-2335
▁201	-2336
▁lif	-2337
▁log	-2338
▁action	-2339
▁device	-2340
50	-2341
▁bal	-2342
ief	-2343
ously	-2344
▁virt	-2345
medi	-2346
▁hit	-2347
▁activ	-2348
▁block	-2349
▁return	-2350
▁eth	-2351
▁pan	-2352
▁tas	-2353
▁west	-2354
▁adm	-2355
▁code	-2356
▁neur	-2357
▁please	-2358
▁particip	-2359
▁eventually	-2360
▁communities	-2361
▁mal	-2362
▁interv	-2363
▁progress	-2364
▁bur	-2365
for	-2366
abor	-2367
▁wish	-2368
▁clean	-2369
▁nucle	-2370
▁particularly	-2371
▁star	-2372
▁account	-2373
▁pu	-2374
▁higher	-2375
▁vision	-2376
▁examples	-2377
▁violence	-2378
▁rules	-2379
▁scientific	-2380
uly	-2381
rast	-2382
▁quality	-2383
ctors	-2384
▁capt	-2385
▁screen	-2386
▁starts	-2387
▁hospital	-2388
▁bir	-2389
▁virus	-2390
▁walking	-2391
▁character	-2392
gth	-2393
▁tar	-2394
▁consider	-2395
▁conscious	-2396
▁onto	-2397
▁bacter	-2398
▁notice	-2399
▁showing	-2400
▁totally	-2401
umb	-2402
▁sam	-2403
itary	-2404
▁prim	-2405
▁ready	-2406
▁prison	-2407
▁college	-2408
▁suddenly	-2409
▁camera	-2410
▁materials	-2411
ners	-2412
ground	-2413
▁effic	-2414
▁moved	-2415
onse	-2416
▁syn	-2417
▁plants	-2418
▁biggest	-2419
▁everywhere	-2420
ext	-2421
▁dan	-2422
▁bank	-2423
▁largest	-2424
▁teachers	-2425
eter	-2426
▁jobs	-2427
usion	-2428
▁narr	-2429
▁cause	-2430
▁exciting	-2431
▁extremely	-2432
▁diag	-2433
ressed	-2434
▁results	-2435
▁vari	-2436
▁aware	-2437
▁encou	-2438
▁square	-2439
ok	-2440
iar	-2441
▁anyway	-2442
▁threat	-2443
cuss	-2444
▁represent	-2445
idge	-2446
▁gas	-2447
▁skin	-2448
▁wants	-2449
▁detail	-2450
▁response	-2451
fer	-2452
▁div	-2453
antly	-2454
▁link	-2455
▁apart	-2456
▁student	-2457
▁sky	-2458
▁role	-2459
▁meant	-2460
▁immedi	-2461
▁creative	-2462
▁individuals	-2463
▁80	-2464
▁wait	-2465
▁further	-2466
▁projects	-2467
▁essentially	-2468
isions	-2469
▁fix	-2470
▁meth	-2471
▁push	-2472
▁check	-2473
▁crazy	-2474
osphere	-2475
▁watching	-2476
uit	-2477
▁ban	-2478
▁sal	-2479
▁stick	-2480
▁door	-2481
▁birth	-2482
▁games	-2483
▁print	-2484
oid	-2485
▁adult	-2486
▁labor	-2487
▁village	-2488
▁san	-2489
▁models	-2490
ey	-2491
▁democracy	-2492
verty	-2493
▁east	-2494
▁freed	-2495
▁named	-2496
▁context	-2497
ims	-2498
▁11	-2499
▁cold	-2500
▁separ	-2501
▁discover	-2502
▁favorite	-2503
nal	-2504
rest	-2505
▁ine	-2506
▁tree	-2507
▁waste	-2508
▁chemical	-2509
▁organization	-2510
▁deb	-2511
▁clin	-2512
▁african	-2513
▁allowed	-2514
▁complic	-2515
▁perspect	-2516
▁cat	-2517
▁finan	-2518
▁trees	-2519
▁doctor	-2520
▁terror	-2521
▁transl	-2522
▁improve	-2523
▁medicine	-2524
▁fundamental	-2525
icle	-2526
▁dro	-2527
▁mis	-2528
▁carry	-2529
▁robots	-2530
▁colleag	-2531
▁introdu	-2532
▁supposed	-2533
▁earl	-2534
▁farm	-2535
▁poverty	-2536
▁strateg	-2537
▁conflict	-2538
▁connected	-2539
▁luck	-2540
itten	-2541
oming	-2542
ughter	-2543
▁x	-2544
▁los	-2545
▁brit	-2546
▁coun	-2547
▁goal	-2548
▁police	-2549
▁passion	-2550
▁continue	-2551
ai	-2552
enom	-2553
▁jud	-2554
urban	-2555
▁choose	-2556
▁objects	-2557
▁grew	-2558
▁trial	-2559
▁fant	-2560
▁imposs	-2561
▁extraordinary	-2562
erve	-2563
▁dam	-2564
▁sand	-2565
▁accept	-2566
▁wealth	-2567
▁including	-2568
▁fra	-2569
▁joh	-2570
▁assum	-2571
▁somewhere	-2572
.,	-2573
▁fill	-2574
▁tells	-2575
▁memory	-2576
▁buildings	-2577
▁happiness	-2578
apan	-2579
▁ang	-2580
▁bom	-2581
▁graph	-2582
▁minds	-2583
▁shown	-2584
ruction	-2585
▁launch	-2586
▁thanks	-2587
▁families	-2588
▁signific	-2589
▁thousand	-2590
ery	-2591
▁late	-2592
▁spir	-2593
▁detect	-2594
▁mathemat	-2595
▁fing	-2596
▁zero	-2597
▁positive	-2598
ring	-2599
▁above	-2600
▁usually	-2601
more	-2602
▁cart	-2603
▁wife	-2604
▁bunch	-2605
▁cases	-2606
▁collabor	-2607
▁16	-2608
▁remark	-2609
▁president	-2610
▁fle	-2611
phone	-2612
▁japan	-2613
▁movie	-2614
▁discuss	-2615
▁tom	-2616
ulate	-2617
▁sequ	-2618
▁influ	-2619
▁worse	-2620
▁concer	-2621
▁temper	-2622
▁pattern	-2623
▁teacher	-2624
▁card	-2625
▁magn	-2626
▁allows	-2627
▁faster	-2628
▁taught	-2629
iger	-2630
ought	-2631
▁mine	-2632
▁wild	-2633
▁crisis	-2634
▁finding	-2635
men	-2636
▁enj	-2637
▁conditions	-2638
▁isl	-2639
odies	-2640
▁fine	-2641
▁ended	-2642
▁genes	-2643
▁unfortun	-2644
imp	-2645
▁blind	-2646
▁stars	-2647
▁larger	-2648
▁activity	-2649
ee	-2650
▁14	-2651
▁lose	-2652
▁author	-2653
▁killed	-2654
▁source	-2655
izations	-2656
▁excited	-2657
▁decision	-2658
▁impossible	-2659
nces	-2660
▁ann	-2661
▁bud	-2662
▁brains	-2663
▁manage	-2664
▁central	-2665
▁however	-2666
▁standing	-2667
ops	-2668
▁webs	-2669
▁chris	-2670
▁somehow	-2671
ana	-2672
▁rid	-2673
▁mars	-2674
▁galax	-2675
bol	-2676
rage	-2677
ured	-2678
▁lower	-2679
emic	-2680
atory	-2681
▁appear	-2682
▁disapp	-2683
▁rand	-2684
ration	-2685
▁truly	-2686
▁minute	-2687
▁studies	-2688
▁kil	-2689
▁pack	-2690
▁older	-2691
▁military	-2692
▁traditional	-2693
eth	-2694
▁corre	-2695
▁service	-2696
▁increase	-2697
▁conversation	-2698
ued	-2699
ffic	-2700
mend	-2701
ission	-2702
▁christ	-2703
▁freedom	-2704
▁position	-2705
▁products	-2706
▁successful	-2707
ipt	-2708
cise	-2709
▁hop	-2710
▁king	-2711
▁nuclear	-2712
▁citizens	-2713
akes	-2714
▁lands	-2715
▁infect	-2716
▁secret	-2717
▁sorts	-2718
▁afford	-2719
▁publish	-2720
▁complicated	-2721
cape	-2722
▁muse	-2723
▁vict	-2724
▁policy	-2725
▁reading	-2726
▁perspective	-2727
put	-2728
▁doc	-2729
▁alth	-2730
▁desp	-2731
▁fram	-2732
others	-2733
▁achieve	-2734
aur	-2735
inct	-2736
▁swe	-2737
▁heav	-2738
▁kept	-2739
▁workers	-2740
▁although	-2741
▁gold	-2742
▁site	-2743
estern	-2744
inated	-2745
▁clearly	-2746
isms	-2747
▁alg	-2748
▁lau	-2749
ounds	-2750
▁purp	-2751
▁straight	-2752
uss	-2753
▁roll	-2754
▁forms	-2755
▁moral	-2756
▁hur	-2757
▁burn	-2758
▁fasc	-2759
▁series	-2760
▁ger	-2761
▁oxy	-2762
▁town	-2763
▁upon	-2764
▁tv	-2765
rams	-2766
soci	-2767
▁hiv	-2768
▁term	-2769
▁museum	-2770
▁pieces	-2771
▁points	-2772
▁training	-2773
owd	-2774
▁ign	-2775
ining	-2776
▁cook	-2777
▁region	-2778
▁specific	-2779
▁mist	-2780
▁board	-2781
ror	-2782
fact	-2783
▁throw	-2784
▁urban	-2785
▁distrib	-2786
oke	-2787
iers	-2788
▁ran	-2789
▁quant	-2790
▁address	-2791
▁contrib	-2792
▁mention	-2793
▁smaller	-2794
▁electricity	-2795
enomen	-2796
▁governments	-2797
zz	-2798
▁dad	-2799
▁page	-2800
▁glass	-2801
▁lines	-2802
▁doctors	-2803
▁phenomen	-2804
▁treatment	-2805
amm	-2806
▁fort	-2807
▁enorm	-2808
▁prote	-2809
▁biology	-2810
▁therefore	-2811
▁increasing	-2812
▁throughout	-2813
sect	-2814
▁hom	-2815
▁spect	-2816
▁solutions	-2817
▁alive	-2818
▁employ	-2819
▁engage	-2820
▁anymore	-2821
▁strange	-2822
▁recognize	-2823
rap	-2824
vision	-2825
▁cloud	-2826
▁innov	-2827
▁respect	-2828
▁seconds	-2829
▁machines	-2830
▁dangerous	-2831
▁decisions	-2832
ama	-2833
tend	-2834
▁weren	-2835
▁physics	-2836
▁patterns	-2837
ech	-2838
▁mr	-2839
▁beings	-2840
▁strugg	-2841
iversity	-2842
▁journal	-2843
▁bacteria	-2844
▁sad	-2845
▁gene	-2846
▁magic	-2847
▁effort	-2848
▁slight	-2849
▁becoming	-2850
▁critical	-2851
dom	-2852
▁thr	-2853
▁broad	-2854
ologists	-2855
▁healthy	-2856
▁private	-2857
▁anywhere	-2858
iced	-2859
▁198	-2860
▁whe	-2861
▁clim	-2862
▁written	-2863
▁21	-2864
▁actual	-2865
▁associ	-2866
▁intelligence	-2867
sequ	-2868
▁afgh	-2869
▁mental	-2870
▁comfort	-2871
▁init	-2872
▁price	-2873
▁skills	-2874
▁explore	-2875
▁provide	-2876
▁western	-2877
▁atm	-2878
▁loved	-2879
▁calcul	-2880
▁earlier	-2881
▁version	-2882
▁waiting	-2883
▁americans	-2884
▁listening	-2885
▁immediately	-2886
time	-2887
▁vacc	-2888
▁molec	-2889
cies	-2890
aging	-2891
ently	-2892
▁trou	-2893
▁cover	-2894
▁unique	-2895
▁financial	-2896
▁architecture	-2897
▁unfortunately	-2898
▁13	-2899
▁sus	-2900
▁costs	-2901
ike	-2902
imately	-2903
▁career	-2904
▁famous	-2905
▁content	-2906
▁interview	-2907
▁cry	-2908
▁pal	-2909
▁scr	-2910
▁sor	-2911
uments	-2912
▁forth	-2913
▁trick	-2914
▁remind	-2915
▁plastic	-2916
▁expensive	-2917
▁institutions	-2918
▁neighborhood	-2919
▁environmental	-2920
▁exh	-2921
▁laws	-2922
▁shot	-2923
▁match	-2924
ustrial	-2925
▁diseases	-2926
▁transport	-2927
iet	-2928
lly	-2929
oon	-2930
▁cust	-2931
▁trade	-2932
▁bodies	-2933
▁willing	-2934
▁jump	-2935
▁final	-2936
itation	-2937
▁dog	-2938
iding	-2939
▁hero	-2940
▁offic	-2941
▁worry	-2942
inating	-2943
▁afghan	-2944
▁greater	-2945
▁painting	-2946
bb	-2947
rep	-2948
▁hous	-2949
▁drink	-2950
▁occur	-2951
▁determ	-2952
▁method	-2953
▁weight	-2954
▁direction	-2955
▁fantastic	-2956
ceed	-2957
acity	-2958
cient	-2959
▁none	-2960
▁autom	-2961
▁humanity	-2962
ays	-2963
lebr	-2964
▁fit	-2965
▁river	-2966
▁store	-2967
▁celebr	-2968
▁greatest	-2969
ulf	-2970
back	-2971
ained	-2972
iling	-2973
▁catch	-2974
▁liber	-2975
▁himself	-2976
▁neurons	-2977
ira	-2978
ball	-2979
iest	-2980
iven	-2981
▁ara	-2982
itude	-2983
▁yell	-2984
▁forget	-2985
▁multip	-2986
met	-2987
amic	-2988
▁income	-2989
▁genetic	-2990
▁familiar	-2991
ried	-2992
▁veh	-2993
water	-2994
▁floor	-2995
▁saving	-2996
▁services	-2997
▁teaching	-2998
mb	-2999
oty	-3000
▁den	-3001
▁hol	-3002
▁enjoy	-3003
▁mobile	-3004
▁nation	-3005
▁driving	-3006
0,	-3007
▁tit	-3008
▁rise	-3009
▁apply	-3010
▁oppos	-3011
pro	-3012
ube	-3013
▁hall	-3014
iation	-3015
▁gradu	-3016
▁walked	-3017
▁massive	-3018
gra	-3019
rees	-3020
▁ten	-3021
atives	-3022
▁surve	-3023
▁levels	-3024
▁random	-3025
▁challenges	-3026
resh	-3027
▁pressure	-3028
▁effective	-3029
uted	-3030
▁dyn	-3031
▁email	-3032
▁laugh	-3033
▁raise	-3034
▁range	-3035
▁mid	-3036
▁optim	-3037
▁types	-3038
▁decade	-3039
▁values	-3040
▁website	-3041
▁production	-3042
aly	-3043
▁legs	-3044
▁radio	-3045
▁politics	-3046
▁engineering	-3047
▁aid	-3048
attle	-3049
eless	-3050
▁harv	-3051
istics	-3052
▁integ	-3053
ndon	-3054
▁lat	-3055
aries	-3056
itted	-3057
▁hell	-3058
▁babies	-3059
rastruct	-3060
▁decades	-3061
▁meeting	-3062
sc	-3063
▁fuel	-3064
▁hair	-3065
▁race	-3066
▁beauty	-3067
▁popular	-3068
▁practice	-3069
▁terrible	-3070
▁infrastruct	-3071
▁90	-3072
ping	-3073
ables	-3074
▁decide	-3075
▁physic	-3076
▁societ	-3077
atically	-3078
▁standard	-3079
▁following	-3080
▁demon	-3081
▁honest	-3082
▁mostly	-3083
cope	-3084
vert	-3085
▁female	-3086
▁spirit	-3087
▁various	-3088
▁industrial	-3089
bel	-3090
▁ut	-3091
airs	-3092
rene	-3093
▁ken	-3094
▁shap	-3095
▁express	-3096
▁programs	-3097
iot	-3098
▁male	-3099
▁ahead	-3100
▁useful	-3101
▁effects	-3102
▁performance	-3103
zil	-3104
▁tun	-3105
▁surger	-3106
▁choices	-3107
▁remarkable	-3108
unk	-3109
▁base	-3110
▁tiss	-3111
▁flying	-3112
▁consequ	-3113
▁enormous	-3114
▁mountain	-3115
▁surround	-3116
▁atmosphere	-3117
iate	-3118
▁prep	-3119
▁rule	-3120
▁wood	-3121
ologist	-3122
▁brazil	-3123
▁colleagues	-3124
▁connection	-3125
ches	-3126
▁dram	-3127
▁shark	-3128
▁german	-3129
▁shared	-3130
▁cultural	-3131
iles	-3132
itor	-3133
▁pig	-3134
▁tor	-3135
ement	-3136
epend	-3137
▁simpl	-3138
▁speech	-3139
▁invented	-3140
ica	-3141
why	-3142
▁nut	-3143
▁pet	-3144
▁beat	-3145
▁uses	-3146
▁weap	-3147
▁austr	-3148
▁commer	-3149
▁helped	-3150
▁relative	-3151
▁organizations	-3152
ils	-3153
uct	-3154
▁et	-3155
aign	-3156
▁500	-3157
▁dar	-3158
▁mut	-3159
▁electr	-3160
ises	-3161
▁hus	-3162
▁tax	-3163
▁ton	-3164
▁worst	-3165
▁island	-3166
▁london	-3167
ervation	-3168
▁instance	-3169
▁condition	-3170
key	-3171
▁drop	-3172
▁sick	-3173
▁destro	-3174
▁respond	-3175
▁streets	-3176
▁campaign	-3177
antic	-3178
erson	-3179
▁john	-3180
▁motiv	-3181
▁whose	-3182
ec	-3183
used	-3184
board	-3185
▁below	-3186
▁instr	-3187
▁depend	-3188
▁supply	-3189
▁possibly	-3190
▁understood	-3191
▁hyd	-3192
▁tens	-3193
▁insect	-3194
▁purpose	-3195
▁washing	-3196
▁slightly	-3197
▁temperature	-3198
ffe	-3199
▁ben	-3200
▁task	-3201
▁concl	-3202
▁custom	-3203
▁demonstr	-3204
▁independ	-3205
▁infrastructure	-3206
▁ur	-3207
wise	-3208
▁mos	-3209
orrow	-3210
▁speaking	-3211
itter	-3212
ufact	-3213
ricult	-3214
▁legal	-3215
▁sorry	-3216
▁stress	-3217
▁television	-3218
▁24	-3219
▁appl	-3220
▁gent	-3221
▁total	-3222
▁stopped	-3223
▁agricult	-3224
▁electron	-3225
ornia	-3226
▁belief	-3227
▁heat	-3228
▁calif	-3229
▁smell	-3230
▁causes	-3231
▁invent	-3232
▁survive	-3233
▁relationships	-3234
ios	-3235
▁boys	-3236
▁doub	-3237
▁mamm	-3238
▁summer	-3239
▁switch	-3240
olve	-3241
▁altern	-3242
▁mission	-3243
my	-3244
▁slide	-3245
▁prevent	-3246
▁directly	-3247
▁manufact	-3248
▁biological	-3249
▁creativity	-3250
anc	-3251
yle	-3252
load	-3253
▁ira	-3254
inate	-3255
▁bang	-3256
▁twice	-3257
reprene	-3258
▁artist	-3259
▁histor	-3260
▁philos	-3261
▁capacity	-3262
▁conference	-3263
▁responsibility	-3264
fl	-3265
▁gun	-3266
▁plat	-3267
▁party	-3268
▁visit	-3269
▁meters	-3270
▁california	-3271
▁experiments	-3272
nel	-3273
▁swim	-3274
▁microb	-3275
▁members	-3276
▁afghanistan	-3277
▁cru	-3278
arian	-3279
gress	-3280
▁hack	-3281
▁paid	-3282
▁displ	-3283
▁despite	-3284
▁controll	-3285
▁profound	-3286
▁communicate	-3287
▁sustainable	-3288
▁answers	-3289
▁tremend	-3290
▁communication	-3291
0.	-3292
band	-3293
▁mix	-3294
▁bord	-3295
▁scan	-3296
▁dimens	-3297
▁oxygen	-3298
▁symbol	-3299
▁knowing	-3300
▁markets	-3301
▁networks	-3302
cles	-3303
▁cla	-3304
▁coast	-3305
▁dance	-3306
▁shock	-3307
▁depart	-3308
▁easily	-3309
▁degrees	-3310
▁dav	-3311
▁loss	-3312
▁bought	-3313
▁democr	-3314
▁highly	-3315
▁reduce	-3316
▁societies	-3317
▁entreprene	-3318
▁surprising	-3319
ray	-3320
ancy	-3321
▁tal	-3322
▁conc	-3323
▁applic	-3324
▁reflect	-3325
▁facebook	-3326
▁emotional	-3327
win	-3328
oper	-3329
uing	-3330
house	-3331
pping	-3332
▁poet	-3333
▁vast	-3334
▁analy	-3335
▁dying	-3336
▁feels	-3337
▁nations	-3338
▁planets	-3339
▁significant	-3340
ls	-3341
raid	-3342
▁196	-3343
▁arab	-3344
▁blog	-3345
▁habit	-3346
▁gentle	-3347
▁devices	-3348
▁justice	-3349
5,	-3350
mon	-3351
ste	-3352
izes	-3353
cules	-3354
▁funny	-3355
▁afraid	-3356
▁window	-3357
▁noticed	-3358
▁daughter	-3359
rew	-3360
anced	-3361
rench	-3362
▁birds	-3363
▁rapid	-3364
▁shift	-3365
▁broken	-3366
▁expand	-3367
▁played	-3368
▁spaces	-3369
▁yellow	-3370
▁original	-3371
icles	-3372
▁hang	-3373
▁hole	-3374
▁closer	-3375
▁corner	-3376
▁forces	-3377
▁resist	-3378
▁volunt	-3379
▁published	-3380
▁differently	-3381
rupt	-3382
wood	-3383
▁fat	-3384
▁iraq	-3385
▁wide	-3386
▁foundation	-3387
cks	-3388
▁lack	-3389
▁nearly	-3390
▁evolved	-3391
▁addition	-3392
▁inspired	-3393
▁designers	-3394
▁ultimately	-3395
gy	-3396
▁je	-3397
▁tur	-3398
oting	-3399
▁moon	-3400
▁reco	-3401
▁active	-3402
▁desert	-3403
▁contact	-3404
▁efficient	-3405
tle	-3406
outh	-3407
▁300	-3408
aling	-3409
▁crowd	-3410
ception	-3411
▁identity	-3412
▁produced	-3413
▁scientist	-3414
kn	-3415
ened	-3416
ores	-3417
ening	-3418
orith	-3419
othes	-3420
▁fold	-3421
▁trib	-3422
▁frank	-3423
▁target	-3424
▁algorith	-3425
▁differences	-3426
cell	-3427
empt	-3428
atell	-3429
▁core	-3430
▁join	-3431
ashion	-3432
▁rough	-3433
▁indian	-3434
▁helping	-3435
▁crim	-3436
▁rare	-3437
▁trip	-3438
▁compon	-3439
▁demand	-3440
▁genome	-3441
▁austral	-3442
▁religion	-3443
▁diversity	-3444
▁molecules	-3445
▁experiences	-3446
look	-3447
arter	-3448
▁wire	-3449
▁dreams	-3450
▁flight	-3451
ef	-3452
▁magaz	-3453
▁inspir	-3454
▁seemed	-3455
▁missing	-3456
▁bringing	-3457
aff	-3458
anda	-3459
term	-3460
▁fol	-3461
▁vul	-3462
▁mich	-3463
▁stem	-3464
▁agree	-3465
▁brill	-3466
▁climb	-3467
▁passed	-3468
▁satell	-3469
▁surgery	-3470
▁trouble	-3471
ius	-3472
lim	-3473
▁ju	-3474
▁gotten	-3475
▁virtual	-3476
af	-3477
▁host	-3478
▁basis	-3479
▁accord	-3480
▁correct	-3481
▁traffic	-3482
▁alt	-3483
▁inj	-3484
▁mig	-3485
idden	-3486
right	-3487
▁rout	-3488
▁1,000	-3489
▁eating	-3490
▁attract	-3491
▁hearing	-3492
gu	-3493
rael	-3494
▁fro	-3495
▁copy	-3496
▁russ	-3497
▁seas	-3498
▁avoid	-3499
▁parad	-3500
▁lights	-3501
▁deliver	-3502
▁forever	-3503
▁partners	-3504
▁spending	-3505
hy	-3506
la	-3507
set	-3508
care	-3509
▁nan	-3510
▁ske	-3511
ander	-3512
▁bomb	-3513
▁giant	-3514
▁consid	-3515
▁corpor	-3516
▁studying	-3517
▁background	-3518
▁complexity	-3519
orge	-3520
▁etc	-3521
▁fab	-3522
▁teen	-3523
icking	-3524
▁coffe	-3525
▁brother	-3526
▁investment	-3527
▁gh	-3528
▁fed	-3529
▁rom	-3530
▁tum	-3531
▁aspect	-3532
▁amb	-3533
▁ecos	-3534
▁dinos	-3535
▁metap	-3536
▁weird	-3537
eral	-3538
▁enter	-3539
▁fully	-3540
▁stren	-3541
▁opposite	-3542
ding	-3543
rate	-3544
▁airpl	-3545
▁photo	-3546
▁raised	-3547
▁unlike	-3548
▁vulner	-3549
▁creates	-3550
▁commercial	-3551
aced	-3552
atures	-3553
▁accom	-3554
▁cooper	-3555
pre	-3556
ystem	-3557
ifying	-3558
▁mexic	-3559
▁coffee	-3560
▁easier	-3561
▁sexual	-3562
▁focused	-3563
▁strength	-3564
▁consciousness	-3565
1,	-3566
reci	-3567
istry	-3568
▁harm	-3569
▁mort	-3570
▁lucky	-3571
▁matters	-3572
▁opportunities	-3573
uge	-3574
▁boat	-3575
▁gard	-3576
▁describe	-3577
▁tremendous	-3578
arm	-3579
cop	-3580
roud	-3581
▁wis	-3582
▁prev	-3583
▁failure	-3584
▁leadership	-3585
vit	-3586
▁gar	-3587
▁mad	-3588
▁saf	-3589
▁acad	-3590
▁forg	-3591
▁horr	-3592
▁shop	-3593
▁foreign	-3594
▁ecosystem	-3595
▁importantly	-3596
ties	-3597
rated	-3598
▁iran	-3599
▁teles	-3600
▁ancient	-3601
▁kilomet	-3602
ya	-3603
▁ep	-3604
hand	-3605
▁bag	-3606
▁cred	-3607
▁epid	-3608
▁flag	-3609
▁adapt	-3610
▁invis	-3611
▁mouth	-3612
▁10,000	-3613
▁bright	-3614
▁israel	-3615
▁therap	-3616
ulations	-3617
▁artists	-3618
▁sharing	-3619
▁turning	-3620
▁platform	-3621
▁structures	-3622
▁possibility	-3623
▁1.	-3624
cript	-3625
▁held	-3626
▁puzz	-3627
▁brings	-3628
▁photos	-3629
▁remain	-3630
▁landscape	-3631
ae	-3632
fr	-3633
▁repe	-3634
▁proud	-3635
▁fairly	-3636
▁notion	-3637
▁entirely	-3638
8,	-3639
ees	-3640
mark	-3641
this	-3642
▁mas	-3643
▁bees	-3644
▁stuck	-3645
▁advant	-3646
▁breast	-3647
▁transm	-3648
▁benefits	-3649
▁emotions	-3650
▁brilliant	-3651
▁imagination	-3652
▁mit	-3653
▁cand	-3654
▁reve	-3655
▁david	-3656
▁according	-3657
2,	-3658
can	-3659
wor	-3660
iage	-3661
based	-3662
▁chur	-3663
▁accur	-3664
▁distance	-3665
▁otherwise	-3666
9,	-3667
bu	-3668
▁joy	-3669
ipped	-3670
itely	-3671
▁band	-3672
▁poem	-3673
▁seed	-3674
▁chick	-3675
▁tough	-3676
ography	-3677
▁bridge	-3678
▁disord	-3679
▁remote	-3680
▁concent	-3681
▁husband	-3682
▁billions	-3683
▁negative	-3684
▁religious	-3685
bert	-3686
▁cogn	-3687
▁myster	-3688
▁attempt	-3689
▁regular	-3690
ley	-3691
off	-3692
zen	-3693
ysis	-3694
▁egg	-3695
▁scul	-3696
▁calls	-3697
▁diagn	-3698
▁batter	-3699
▁phones	-3700
▁appreci	-3701
▁fashion	-3702
▁twitter	-3703
▁discovery	-3704
▁definition	-3705
▁phenomenon	-3706
▁necessarily	-3707
isco	-3708
celer	-3709
rogen	-3710
▁asia	-3711
▁libr	-3712
ulated	-3713
▁sport	-3714
▁opened	-3715
▁counter	-3716
▁moments	-3717
▁collective	-3718
cest	-3719
▁bone	-3720
▁disp	-3721
▁exer	-3722
▁bound	-3723
▁brand	-3724
▁gender	-3725
▁tissue	-3726
▁figured	-3727
▁require	-3728
▁european	-3729
reg	-3730
▁lin	-3731
▁note	-3732
▁mouse	-3733
▁pleas	-3734
connect	-3735
▁events	-3736
▁emotion	-3737
▁argument	-3738
▁elements	-3739
▁suffering	-3740
aria	-3741
▁ble	-3742
▁rot	-3743
▁iron	-3744
▁helps	-3745
▁leads	-3746
▁niger	-3747
ifically	-3748
▁destroy	-3749
▁creatures	-3750
▁necessary	-3751
▁particles	-3752
▁professor	-3753
vere	-3754
▁que	-3755
▁appe	-3756
▁bread	-3757
▁cheap	-3758
▁faith	-3759
▁adults	-3760
▁ancest	-3761
▁failed	-3762
▁sector	-3763
▁stream	-3764
▁transp	-3765
▁farmers	-3766
▁shouldn	-3767
▁normally	-3768
iber	-3769
▁shr	-3770
▁exch	-3771
▁ship	-3772
▁crime	-3773
▁charge	-3774
▁pounds	-3775
▁holding	-3776
▁leading	-3777
▁studied	-3778
▁compared	-3779
▁previous	-3780
▁influence	-3781
▁responsible	-3782
ked	-3783
ager	-3784
▁due	-3785
▁jew	-3786
▁mel	-3787
print	-3788
▁agre	-3789
▁ange	-3790
▁spot	-3791
▁vall	-3792
▁prior	-3793
▁walls	-3794
▁sculpt	-3795
▁signal	-3796
ada	-3797
verse	-3798
▁shel	-3799
▁diver	-3800
▁astron	-3801
▁double	-3802
▁letter	-3803
▁volunte	-3804
ha	-3805
oun	-3806
cons	-3807
ears	-3808
▁und	-3809
▁bear	-3810
▁lock	-3811
▁tour	-3812
▁cycle	-3813
▁prost	-3814
▁convin	-3815
▁french	-3816
▁restaur	-3817
▁succeed	-3818
▁childhood	-3819
▁organisms	-3820
▁competition	-3821
▁400	-3822
▁mer	-3823
▁tast	-3824
dimens	-3825
▁lunch	-3826
▁newsp	-3827
▁stock	-3828
▁wheel	-3829
▁politic	-3830
▁theater	-3831
ification	-3832
▁department	-3833
▁cos	-3834
▁mir	-3835
▁embra	-3836
▁equal	-3837
▁fresh	-3838
▁offer	-3839
▁lesson	-3840
▁master	-3841
▁acceler	-3842
▁strategy	-3843
▁engineers	-3844
▁businesses	-3845
▁depression	-3846
vant	-3847
▁gay	-3848
▁purs	-3849
idents	-3850
▁indic	-3851
▁motor	-3852
▁quote	-3853
▁talks	-3854
issions	-3855
▁dollar	-3856
▁oceans	-3857
▁balance	-3858
▁install	-3859
▁leaving	-3860
▁invisible	-3861
▁philosoph	-3862
▁washington	-3863
▁1,	-3864
roll	-3865
wide	-3866
▁mur	-3867
▁deeply	-3868
▁typical	-3869
ibilities	-3870
▁fighting	-3871
▁magazine	-3872
ky	-3873
lin	-3874
rict	-3875
▁cro	-3876
inist	-3877
▁edge	-3878
▁camer	-3879
▁eleph	-3880
▁frequ	-3881
▁subst	-3882
lection	-3883
quality	-3884
▁hidden	-3885
▁sister	-3886
▁document	-3887
▁currently	-3888
stein	-3889
▁exhib	-3890
▁franc	-3891
▁maint	-3892
▁limited	-3893
▁managed	-3894
▁fascinating	-3895
▁institution	-3896
ses	-3897
hold	-3898
pper	-3899
thes	-3900
vity	-3901
▁adop	-3902
▁foss	-3903
ctions	-3904
▁argue	-3905
▁noise	-3906
▁belong	-3907
▁colors	-3908
▁degree	-3909
▁compare	-3910
▁creation	-3911
▁construct	-3912
▁hopefully	-3913
gypt	-3914
▁dry	-3915
▁hyp	-3916
throp	-3917
▁egypt	-3918
▁paint	-3919
▁origin	-3920
▁refuge	-3921
▁british	-3922
▁watched	-3923
▁majority	-3924
dimensional	-3925
▁professional	-3926
rad	-3927
▁faces	-3928
▁mosqu	-3929
▁caught	-3930
▁closed	-3931
▁slowly	-3932
▁insects	-3933
▁related	-3934
▁finished	-3935
▁separate	-3936
ami	-3937
pes	-3938
yes	-3939
aker	-3940
athy	-3941
▁tow	-3942
▁pros	-3943
▁summ	-3944
▁apple	-3945
▁grass	-3946
ruption	-3947
▁believed	-3948
▁seriously	-3949
ston	-3950
word	-3951
▁pun	-3952
iable	-3953
▁ment	-3954
▁folks	-3955
▁steps	-3956
▁fellow	-3957
▁safety	-3958
▁benefit	-3959
▁prototy	-3960
▁wearing	-3961
▁metaphor	-3962
▁intellect	-3963
▁ug	-3964
▁fif	-3965
▁odd	-3966
▁anti	-3967
▁defe	-3968
▁grown	-3969
▁names	-3970
▁prize	-3971
▁church	-3972
▁everyday	-3973
▁followed	-3974
▁whenever	-3975
hi	-3976
und	-3977
agers	-3978
ength	-3979
▁opin	-3980
▁finger	-3981
▁leader	-3982
▁unless	-3983
▁artific	-3984
▁element	-3985
▁multiple	-3986
▁soldiers	-3987
▁concerned	-3988
ta	-3989
amb	-3990
▁frag	-3991
▁gall	-3992
▁chair	-3993
▁moves	-3994
▁circle	-3995
ographic	-3996
▁capable	-3997
▁quantum	-3998
▁station	-3999
▁trained	-4000
▁surprise	-4001
▁constantly	-4002
▁mathematics	-4003
▁disc	-4004
▁hate	-4005
▁soil	-4006
▁novel	-4007
▁breath	-4008
▁fourth	-4009
▁interaction	-4010
bl	-4011
ri	-4012
ino	-4013
oted	-4014
▁150	-4015
▁hun	-4016
force	-4017
▁chap	-4018
▁gain	-4019
▁wear	-4020
▁heads	-4021
▁begins	-4022
▁fortun	-4023
▁married	-4024
▁accident	-4025
▁sequence	-4026
▁kilometers	-4027
▁principles	-4028
asa	-4029
cket	-4030
known	-4031
▁fell	-4032
▁lapt	-4033
▁whom	-4034
▁truck	-4035
▁grandm	-4036
▁highest	-4037
▁launched	-4038
▁received	-4039
▁advantage	-4040
▁described	-4041
▁researchers	-4042
irt	-4043
enty	-4044
uros	-4045
▁gap	-4046
apers	-4047
illed	-4048
▁paul	-4049
▁court	-4050
▁expert	-4051
▁investig	-4052
▁perfectly	-4053
rel	-4054
sec	-4055
▁bon	-4056
▁era	-4057
▁fis	-4058
▁arts	-4059
▁cosm	-4060
urally	-4061
▁click	-4062
▁goals	-4063
▁pages	-4064
▁attach	-4065
▁valley	-4066
▁factory	-4067
▁replace	-4068
▁weapons	-4069
▁mentioned	-4070
dp	-4071
fo	-4072
lex	-4073
omy	-4074
▁ax	-4075
aked	-4076
▁row	-4077
tical	-4078
▁grad	-4079
▁kick	-4080
terday	-4081
▁march	-4082
▁plane	-4083
▁mothers	-4084
▁cognitive	-4085
▁operating	-4086
▁surprised	-4087
ulous	-4088
▁roof	-4089
▁seat	-4090
forest	-4091
▁brief	-4092
▁crash	-4093
oration	-4094
▁exists	-4095
▁fields	-4096
▁reward	-4097
▁insight	-4098
▁invited	-4099
▁precise	-4100
▁identify	-4101
▁survival	-4102
ij	-4103
asion	-4104
essed	-4105
▁bull	-4106
▁coal	-4107
▁myth	-4108
▁nutr	-4109
▁soph	-4110
▁shoes	-4111
▁signals	-4112
▁principle	-4113
▁healthcare	-4114
▁consequences	-4115
▁aids	-4116
▁hasn	-4117
▁intu	-4118
▁tons	-4119
ipping	-4120
▁coral	-4121
▁equip	-4122
▁homes	-4123
▁commit	-4124
▁debate	-4125
▁dinner	-4126
▁micros	-4127
▁paying	-4128
▁article	-4129
▁letters	-4130
gar	-4131
pher	-4132
that	-4133
▁fal	-4134
▁spl	-4135
▁daily	-4136
▁protein	-4137
▁galaxies	-4138
▁marriage	-4139
▁considered	-4140
▁agriculture	-4141
bi	-4142
cil	-4143
enn	-4144
iat	-4145
edia	-4146
▁nav	-4147
ortex	-4148
▁empt	-4149
▁stim	-4150
▁wave	-4151
ushing	-4152
▁surge	-4153
▁battle	-4154
▁harder	-4155
▁reform	-4156
▁australia	-4157
▁civilization	-4158
mm	-4159
emy	-4160
hab	-4161
anes	-4162
▁smo	-4163
▁ves	-4164
icity	-4165
uries	-4166
▁ants	-4167
▁lady	-4168
▁beach	-4169
▁galaxy	-4170
▁implic	-4171
▁versus	-4172
▁curious	-4173
▁experts	-4174
▁economics	-4175
▁yesterday	-4176
▁associated	-4177
▁increasingly	-4178
ume	-4179
▁gdp	-4180
▁lie	-4181
▁sla	-4182
▁arms	-4183
▁diet	-4184
▁meat	-4185
▁nerv	-4186
▁scen	-4187
▁tick	-4188
▁vent	-4189
▁limit	-4190
▁mexico	-4191
▁testing	-4192
▁shut	-4193
▁finish	-4194
▁ladies	-4195
▁leaves	-4196
▁motion	-4197
▁weather	-4198
▁worried	-4199
▁feedback	-4200
▁planning	-4201
▁dol	-4202
▁org	-4203
▁sen	-4204
craft	-4205
▁lies	-4206
▁wake	-4207
▁neuro	-4208
▁forced	-4209
▁incent	-4210
▁spring	-4211
▁stupid	-4212
▁wisdom	-4213
▁drawing	-4214
▁illustr	-4215
▁congress	-4216
▁contract	-4217
▁classroom	-4218
▁existence	-4219
▁mountains	-4220
▁universal	-4221
▁alternative	-4222
▁comfortable	-4223
der	-4224
uous	-4225
▁rub	-4226
▁load	-4227
▁subm	-4228
▁round	-4229
▁autism	-4230
▁desire	-4231
▁vessel	-4232
▁equival	-4233
▁organic	-4234
▁treated	-4235
▁equipment	-4236
▁statistics	-4237
▁generations	-4238
▁independent	-4239
mp	-4240
yl	-4241
▁exec	-4242
▁rein	-4243
▁infin	-4244
▁layer	-4245
▁rural	-4246
▁sympt	-4247
▁voices	-4248
▁england	-4249
▁molecule	-4250
▁struggle	-4251
▁continent	-4252
ago	-4253
pir	-4254
life	-4255
odes	-4256
anted	-4257
▁date	-4258
▁maps	-4259
▁categ	-4260
▁recon	-4261
▁darwin	-4262
▁gather	-4263
▁sending	-4264
▁designer	-4265
▁consumption	-4266
new	-4267
pet	-4268
point	-4269
▁army	-4270
▁warm	-4271
encies	-4272
thetic	-4273
▁lifet	-4274
▁scene	-4275
▁stood	-4276
▁frustr	-4277
▁calling	-4278
▁nervous	-4279
▁resource	-4280
▁emissions	-4281
▁processes	-4282
▁technical	-4283
▁artificial	-4284
▁management	-4285
3,	-4286
dy	-4287
hey	-4288
apse	-4289
▁rat	-4290
▁flat	-4291
▁snow	-4292
itness	-4293
▁quiet	-4294
▁spoke	-4295
▁picked	-4296
▁select	-4297
▁contain	-4298
▁partner	-4299
▁release	-4300
▁warming	-4301
▁engineer	-4302
▁ordinary	-4303
▁tomorrow	-4304
▁institute	-4305
▁interface	-4306
▁languages	-4307
▁experienced	-4308
4,	-4309
aled	-4310
roph	-4311
▁bul	-4312
▁bits	-4313
▁kore	-4314
ensity	-4315
▁2,000	-4316
▁antib	-4317
▁chain	-4318
▁saved	-4319
▁circum	-4320
▁symmet	-4321
▁videos	-4322
▁100,000	-4323
▁germany	-4324
▁keeping	-4325
▁expected	-4326
▁sentence	-4327
▁ah	-4328
ests	-4329
estic	-4330
olves	-4331
▁isol	-4332
▁lawy	-4333
▁puts	-4334
▁unit	-4335
▁vote	-4336
▁weak	-4337
▁brown	-4338
▁facts	-4339
▁inner	-4340
▁poetry	-4341
▁shapes	-4342
▁malaria	-4343
▁vehicle	-4344
▁clinical	-4345
▁criminal	-4346
ara	-4347
ibr	-4348
now	-4349
oom	-4350
rum	-4351
▁35	-4352
bble	-4353
cast	-4354
iors	-4355
▁pil	-4356
▁pip	-4357
▁dial	-4358
▁gang	-4359
▁hadn	-4360
▁illeg	-4361
▁filled	-4362
▁analysis	-4363
▁property	-4364
▁organized	-4365
▁importance	-4366
▁distribution	-4367
place	-4368
▁wond	-4369
▁toward	-4370
▁covered	-4371
▁dealing	-4372
▁dynamic	-4373
▁privile	-4374
▁richard	-4375
▁selling	-4376
▁setting	-4377
▁collection	-4378
▁transition	-4379
▁intelligent	-4380
▁ein	-4381
▁caused	-4382
▁george	-4383
▁movies	-4384
▁cameras	-4385
▁airplane	-4386
▁movements	-4387
▁equivalent	-4388
▁connections	-4389
▁specifically	-4390
esome	-4391
neath	-4392
▁abst	-4393
▁hung	-4394
▁qual	-4395
▁reef	-4396
▁tall	-4397
▁chimp	-4398
▁dolph	-4399
▁kenya	-4400
▁solid	-4401
▁users	-4402
▁thinks	-4403
▁arrived	-4404
▁reaction	-4405
▁convinced	-4406
▁wondering	-4407
▁underneath	-4408
ux	-4409
cap	-4410
gged	-4411
otic	-4412
semb	-4413
▁cow	-4414
▁poo	-4415
▁blow	-4416
▁hide	-4417
▁shad	-4418
elling	-4419
▁heavy	-4420
▁rates	-4421
▁risks	-4422
▁player	-4423
▁factors	-4424
▁advanced	-4425
▁exchange	-4426
sa	-4427
▁mc	-4428
down	-4429
rete	-4430
▁atl	-4431
▁mat	-4432
▁hurt	-4433
▁surf	-4434
▁tail	-4435
lation	-4436
▁prove	-4437
▁sites	-4438
▁toile	-4439
▁losing	-4440
▁neuros	-4441
▁southern	-4442
▁convention	-4443
▁dimensions	-4444
don	-4445
iev	-4446
ocol	-4447
sour	-4448
zing	-4449
▁smile	-4450
▁stone	-4451
osition	-4452
▁houses	-4453
▁medium	-4454
▁cutting	-4455
▁players	-4456
▁whereas	-4457
▁feelings	-4458
▁requires	-4459
▁satellite	-4460
▁democratic	-4461
.'	-4462
ogen	-4463
▁pow	-4464
▁wars	-4465
ession	-4466
▁honor	-4467
▁hyper	-4468
▁veget	-4469
▁damage	-4470
▁garden	-4471
▁muscle	-4472
▁conduct	-4473
▁illness	-4474
▁einstein	-4475
▁japanese	-4476
▁released	-4477
6,	-4478
eng	-4479
mber	-4480
▁cha	-4481
▁bush	-4482
▁ends	-4483
▁driver	-4484
▁extend	-4485
▁height	-4486
▁review	-4487
▁opening	-4488
▁suppose	-4489
▁messages	-4490
▁electrical	-4491
just	-4492
▁toy	-4493
iency	-4494
itals	-4495
▁bare	-4496
▁evil	-4497
▁mart	-4498
▁resc	-4499
▁swed	-4500
icated	-4501
▁cards	-4502
▁colon	-4503
▁signs	-4504
▁waves	-4505
▁deeper	-4506
▁explan	-4507
▁fossil	-4508
▁battery	-4509
▁killing	-4510
▁northern	-4511
▁essential	-4512
▁properties	-4513
▁construction	-4514
car	-4515
cont	-4516
onym	-4517
▁jan	-4518
▁auth	-4519
▁valu	-4520
ension	-4521
stream	-4522
▁estab	-4523
akistan	-4524
▁appropr	-4525
▁victims	-4526
▁designing	-4527
▁inequality	-4528
▁represents	-4529
▁intellectual	-4530
▁entrepreneurs	-4531
cipl	-4532
▁bow	-4533
▁ped	-4534
erves	-4535
▁pray	-4536
▁suit	-4537
acters	-4538
lement	-4539
▁awful	-4540
▁broke	-4541
▁chart	-4542
▁perce	-4543
▁amazon	-4544
▁budget	-4545
▁credit	-4546
▁member	-4547
▁harvard	-4548
▁rapidly	-4549
▁reprodu	-4550
▁witness	-4551
▁epidemic	-4552
▁graduate	-4553
▁sophistic	-4554
▁worldwide	-4555
▁characters	-4556
▁expression	-4557
col	-4558
fish	-4559
irty	-4560
▁2000	-4561
▁lift	-4562
▁pure	-4563
▁recy	-4564
▁empty	-4565
▁promise	-4566
▁variety	-4567
▁emerging	-4568
▁trillion	-4569
▁hey	-4570
▁van	-4571
iques	-4572
▁holes	-4573
▁liked	-4574
▁negot	-4575
▁prime	-4576
▁advert	-4577
▁facing	-4578
▁former	-4579
▁trials	-4580
▁britain	-4581
▁exercise	-4582
▁microbes	-4583
▁pakistan	-4584
▁entertain	-4585
▁francisco	-4586
▁corruption	-4587
▁possibilities	-4588
2.	-4589
gl	-4590
ett	-4591
▁pac	-4592
▁wel	-4593
▁flex	-4594
▁gree	-4595
▁spin	-4596
▁manip	-4597
▁prefer	-4598
▁display	-4599
▁library	-4600
▁radical	-4601
▁thoughts	-4602
▁carefully	-4603
▁chemistry	-4604
▁telescope	-4605
▁protection	-4606
▁effectively	-4607
▁conservation	-4608
ca	-4609
min	-4610
zed	-4611
anze	-4612
aurs	-4613
▁dip	-4614
▁ing	-4615
▁cave	-4616
▁decl	-4617
▁nasa	-4618
▁claim	-4619
▁ideal	-4620
▁occup	-4621
▁sweet	-4622
ulating	-4623
▁capture	-4624
▁forests	-4625
▁sources	-4626
▁official	-4627
▁chimpanze	-4628
▁gentlemen	-4629
▁typically	-4630
▁grandmother	-4631
▁mathematical	-4632
ss	-4633
pan	-4634
gets	-4635
▁ded	-4636
▁mak	-4637
▁hunt	-4638
▁intr	-4639
▁plus	-4640
▁pole	-4641
▁remo	-4642
▁shif	-4643
▁minim	-4644
▁cultures	-4645
▁required	-4646
▁politicians	-4647
prof	-4648
▁lic	-4649
akers	-4650
▁dots	-4651
▁gift	-4652
▁liqu	-4653
▁peak	-4654
▁ride	-4655
pected	-4656
▁horse	-4657
▁pengu	-4658
▁sight	-4659
▁length	-4660
▁centers	-4661
▁lessons	-4662
▁roughly	-4663
▁minister	-4664
▁introduce	-4665
▁profession	-4666
▁relatively	-4667
30	-4668
rs	-4669
▁'9	-4670
osis	-4671
▁wik	-4672
▁club	-4673
▁mira	-4674
▁user	-4675
▁kitch	-4676
▁profit	-4677
▁depends	-4678
▁details	-4679
▁extract	-4680
▁generate	-4681
▁lifetime	-4682
▁disappear	-4683
▁vulnerable	-4684
ael	-4685
bur	-4686
cal	-4687
icy	-4688
▁bee	-4689
▁jack	-4690
▁loud	-4691
▁shall	-4692
itarian	-4693
▁assist	-4694
▁buying	-4695
▁define	-4696
▁command	-4697
▁mosquit	-4698
▁nigeria	-4699
▁convince	-4700
▁location	-4701
▁generally	-4702
▁producing	-4703
▁definitely	-4704
▁participate	-4705
ded	-4706
spe	-4707
▁py	-4708
cers	-4709
▁jail	-4710
▁unex	-4711
▁unus	-4712
▁compl	-4713
▁crack	-4714
▁serve	-4715
▁tumor	-4716
▁status	-4717
▁survey	-4718
▁consist	-4719
▁circumst	-4720
▁chemicals	-4721
▁dinosaurs	-4722
▁encourage	-4723
▁techniques	-4724
bre	-4725
▁45	-4726
nded	-4727
uary	-4728
▁aff	-4729
▁phr	-4730
icago	-4731
rooms	-4732
▁diam	-4733
▁drag	-4734
▁mand	-4735
▁domin	-4736
▁shame	-4737
▁staff	-4738
▁canada	-4739
▁interp	-4740
▁engaged	-4741
▁funding	-4742
▁anderson	-4743
▁molecular	-4744
but	-4745
▁bg	-4746
abet	-4747
stic	-4748
▁cub	-4749
usive	-4750
▁bran	-4751
▁hill	-4752
▁sees	-4753
▁fewer	-4754
▁grade	-4755
▁pregn	-4756
▁steel	-4757
▁sugar	-4758
▁formed	-4759
▁regard	-4760
▁sharks	-4761
▁accompl	-4762
▁awesome	-4763
▁cartoon	-4764
▁encoura	-4765
▁consumer	-4766
▁personally	-4767
▁transformation	-4768
oes	-4769
ole	-4770
▁eld	-4771
▁les	-4772
▁cure	-4773
▁desk	-4774
▁orch	-4775
▁cyber	-4776
▁grain	-4777
▁metal	-4778
▁teeth	-4779
▁advent	-4780
▁forgot	-4781
▁winter	-4782
▁actions	-4783
▁applied	-4784
▁chicago	-4785
▁courage	-4786
▁spectrum	-4787
▁fundament	-4788
▁invention	-4789
▁combination	-4790
1.	-4791
60	-4792
uls	-4793
oles	-4794
▁oct	-4795
▁dogs	-4796
▁james	-4797
▁pitch	-4798
▁reven	-4799
▁bottle	-4800
▁bubble	-4801
▁studio	-4802
▁primary	-4803
▁valuable	-4804
▁hospitals	-4805
▁manufacturing	-4806
ox	-4807
▁ru	-4808
bors	-4809
olds	-4810
tube	-4811
▁bath	-4812
▁cast	-4813
▁nose	-4814
urance	-4815
▁auton	-4816
▁obser	-4817
▁polar	-4818
▁refer	-4819
▁shoot	-4820
▁inevit	-4821
▁illegal	-4822
▁include	-4823
▁outcome	-4824
▁vaccine	-4825
▁apparent	-4826
▁disaster	-4827
▁environments	-4828
ka	-4829
▁nur	-4830
▁grid	-4831
▁lect	-4832
cience	-4833
▁flies	-4834
▁genet	-4835
▁horiz	-4836
▁sides	-4837
▁arrest	-4838
▁compar	-4839
▁fisher	-4840
▁marine	-4841
▁season	-4842
▁kitchen	-4843
▁quarter	-4844
▁establish	-4845
▁increased	-4846
▁naturally	-4847
▁discussion	-4848
▁instrument	-4849
▁situations	-4850
▁evolutionary	-4851
au	-4852
hyth	-4853
icip	-4854
▁ens	-4855
▁wat	-4856
alled	-4857
▁diss	-4858
▁aging	-4859
▁assign	-4860
▁blocks	-4861
▁mirror	-4862
▁worlds	-4863
▁chicken	-4864
▁opinion	-4865
abilities	-4866
▁affected	-4867
▁carrying	-4868
▁symptoms	-4869
▁authority	-4870
▁awareness	-4871
▁employees	-4872
▁potentially	-4873
dr	-4874
ym	-4875
van	-4876
▁ber	-4877
▁pin	-4878
eline	-4879
porary	-4880
▁atoms	-4881
▁analog	-4882
▁drives	-4883
▁empathy	-4884
▁gravity	-4885
▁viruses	-4886
▁youtube	-4887
▁interests	-4888
▁neighbors	-4889
▁restaurant	-4890
iti	-4891
mas	-4892
▁99	-4893
▁ii	-4894
iend	-4895
▁jer	-4896
ament	-4897
child	-4898
icing	-4899
ublic	-4900
▁fert	-4901
▁thin	-4902
father	-4903
ternal	-4904
▁added	-4905
▁input	-4906
▁boston	-4907
▁factor	-4908
▁liquid	-4909
▁option	-4910
▁regions	-4911
▁unusual	-4912
▁recorded	-4913
▁behaviors	-4914
▁newspaper	-4915
▁radiation	-4916
▁traveling	-4917
▁components	-4918
▁introduced	-4919
▁physically	-4920
▁biom	-4921
▁impl	-4922
▁ring	-4923
▁runs	-4924
▁soul	-4925
olving	-4926
▁false	-4927
▁islam	-4928
▁notes	-4929
▁renew	-4930
▁organs	-4931
▁pulled	-4932
▁attacks	-4933
▁channel	-4934
▁mistake	-4935
▁reached	-4936
▁existing	-4937
▁maintain	-4938
▁password	-4939
▁prepared	-4940
▁fundamentally	-4941
▁sophisticated	-4942
rog	-4943
▁bat	-4944
▁rit	-4945
▁mile	-4946
▁milk	-4947
▁perm	-4948
▁pian	-4949
▁estim	-4950
▁goods	-4951
▁keeps	-4952
▁lying	-4953
▁muslim	-4954
▁sample	-4955
▁sports	-4956
▁empower	-4957
▁brothers	-4958
▁rational	-4959
▁mortality	-4960
▁pollution	-4961
▁protected	-4962
▁laboratory	-4963
▁conversations	-4964
hes	-4965
log	-4966
uits	-4967
▁sco	-4968
build	-4969
lying	-4970
▁hotel	-4971
▁storm	-4972
▁critic	-4973
▁severe	-4974
▁fishing	-4975
▁silence	-4976
▁pleasure	-4977
▁stronger	-4978
▁transfer	-4979
▁activities	-4980
▁innovative	-4981
▁meaningful	-4982
▁na	-4983
▁cup	-4984
ework	-4985
▁acqu	-4986
▁span	-4987
▁clinic	-4988
▁conver	-4989
▁desper	-4990
▁france	-4991
▁ingred	-4992
▁laptop	-4993
▁perman	-4994
▁feature	-4995
▁harvest	-4996
▁housing	-4997
▁michael	-4998
▁operate	-4999
▁hydrogen	-5000
▁framework	-5001
▁providing	-5002
ald	-5003
esh	-5004
whel	-5005
▁194	-5006
▁gut	-5007
abled	-5008
icate	-5009
▁barr	-5010
▁reci	-5011
anging	-5012
▁clock	-5013
▁curve	-5014
▁satis	-5015
▁topic	-5016
▁union	-5017
▁driven	-5018
▁scared	-5019
▁senses	-5020
▁sphere	-5021
▁privacy	-5022
▁overwhel	-5023
▁ultimate	-5024
▁practical	-5025
▁destruction	-5026
uel	-5027
cond	-5028
▁ath	-5029
organ	-5030
▁alex	-5031
▁clip	-5032
▁pair	-5033
angers	-5034
▁doubt	-5035
▁steve	-5036
▁toxic	-5037
▁joined	-5038
▁neither	-5039
▁abstract	-5040
▁administ	-5041
▁equality	-5042
▁features	-5043
▁vehicles	-5044
▁computing	-5045
▁mechanism	-5046
▁algorithms	-5047
▁efficiency	-5048
▁literature	-5049
▁inspiration	-5050
▁technological	-5051
▁bes	-5052
▁las	-5053
▁rig	-5054
▁spo	-5055
▁eggs	-5056
▁hits	-5057
▁coord	-5058
▁score	-5059
▁clever	-5060
▁russia	-5061
▁afterno	-5062
▁equally	-5063
▁islands	-5064
▁records	-5065
▁remains	-5066
▁singing	-5067
▁antibiot	-5068
▁mathematic	-5069
▁processing	-5070
▁collaboration	-5071
▁transportation	-5072
da	-5073
ams	-5074
igm	-5075
umps	-5076
▁aug	-5077
▁bio	-5078
▁max	-5079
▁meg	-5080
▁pool	-5081
▁scar	-5082
▁songs	-5083
▁hoping	-5084
▁solved	-5085
▁figures	-5086
▁largely	-5087
▁tonight	-5088
▁windows	-5089
▁dramatic	-5090
▁election	-5091
▁internal	-5092
▁policies	-5093
▁terrorism	-5094
▁productive	-5095
20	-5096
lom	-5097
aren	-5098
ront	-5099
▁anx	-5100
▁bay	-5101
▁tan	-5102
▁ven	-5103
gment	-5104
▁mont	-5105
▁nurs	-5106
▁subs	-5107
▁zone	-5108
▁ought	-5109
▁upper	-5110
▁acting	-5111
▁patent	-5112
▁amounts	-5113
▁clothes	-5114
▁electro	-5115
▁musical	-5116
▁contrast	-5117
▁printing	-5118
▁relevant	-5119
▁ancestors	-5120
▁passionate	-5121
▁perception	-5122
▁underwater	-5123
500	-5124
ham	-5125
nes	-5126
opia	-5127
▁sem	-5128
▁twe	-5129
enced	-5130
orous	-5131
▁bell	-5132
▁dece	-5133
▁tape	-5134
isters	-5135
▁tests	-5136
▁contem	-5137
▁cortex	-5138
▁remove	-5139
▁rocket	-5140
▁borders	-5141
▁breathe	-5142
▁charles	-5143
▁combine	-5144
▁dropped	-5145
▁nowhere	-5146
▁unknown	-5147
▁concrete	-5148
▁confront	-5149
▁director	-5150
▁swimming	-5151
▁collected	-5152
▁operation	-5153
▁psychology	-5154
▁surrounded	-5155
▁photographs	-5156
▁sustainability	-5157
sem	-5158
▁2.	-5159
▁ip	-5160
▁pm	-5161
▁cere	-5162
▁glam	-5163
▁joke	-5164
▁embed	-5165
▁frame	-5166
▁initi	-5167
▁navig	-5168
▁paris	-5169
▁plate	-5170
▁ridic	-5171
▁skill	-5172
▁diplom	-5173
▁fabric	-5174
▁puzzle	-5175
▁reject	-5176
▁eastern	-5177
▁visible	-5178
▁younger	-5179
▁memories	-5180
▁republic	-5181
▁functions	-5182
za	-5183
ums	-5184
crim	-5185
ingu	-5186
gging	-5187
▁grab	-5188
▁lens	-5189
▁mere	-5190
▁wine	-5191
▁stret	-5192
llywood	-5193
▁anonym	-5194
▁parall	-5195
▁comment	-5196
▁fingers	-5197
▁intense	-5198
▁wireless	-5199
▁afternoon	-5200
▁explained	-5201
▁narrative	-5202
que	-5203
berg	-5204
olic	-5205
oses	-5206
▁dot	-5207
▁tab	-5208
being	-5209
▁bicy	-5210
▁lake	-5211
▁3,000	-5212
▁angry	-5213
▁dress	-5214
▁honey	-5215
▁judge	-5216
▁taste	-5217
▁theme	-5218
▁thick	-5219
▁youth	-5220
inction	-5221
▁advice	-5222
▁agreed	-5223
▁announ	-5224
▁worker	-5225
▁defense	-5226
▁discipl	-5227
▁falling	-5228
▁sunlight	-5229
▁appreciate	-5230
▁mechanical	-5231
▁resistance	-5232
▁challenging	-5233
▁applications	-5234
80	-5235
▁mice	-5236
▁stan	-5237
arrass	-5238
▁depth	-5239
▁button	-5240
▁handle	-5241
▁stayed	-5242
▁tested	-5243
▁diction	-5244
▁fiction	-5245
▁constant	-5246
▁horrible	-5247
▁infected	-5248
▁mistakes	-5249
▁organism	-5250
▁proteins	-5251
▁embarrass	-5252
▁interpret	-5253
▁greenhouse	-5254
hips	-5255
uses	-5256
▁haw	-5257
scale	-5258
▁horm	-5259
▁outc	-5260
▁silk	-5261
▁trig	-5262
americ	-5263
▁chose	-5264
▁dynam	-5265
▁border	-5266
▁boring	-5267
▁deaths	-5268
▁iphone	-5269
▁evening	-5270
▁violent	-5271
▁accurate	-5272
▁occurred	-5273
▁emergency	-5274
▁marketing	-5275
▁capitalism	-5276
▁circumstances	-5277
5.	-5278
ita	-5279
rom	-5280
▁mac	-5281
ended	-5282
lands	-5283
▁busy	-5284
▁fake	-5285
▁obst	-5286
▁sept	-5287
▁zoom	-5288
▁falls	-5289
▁resil	-5290
▁title	-5291
▁trend	-5292
▁deploy	-5293
cription	-5294
▁constit	-5295
▁cooking	-5296
▁defined	-5297
▁options	-5298
▁overall	-5299
▁sensors	-5300
▁birthday	-5301
▁occasion	-5302
▁confidence	-5303
ih	-5304
pa	-5305
gue	-5306
vis	-5307
anta	-5308
foot	-5309
greg	-5310
▁hem	-5311
▁sir	-5312
▁cock	-5313
▁cord	-5314
▁flew	-5315
▁label	-5316
▁rocks	-5317
▁split	-5318
▁uncom	-5319
▁monkey	-5320
▁virgin	-5321
▁parking	-5322
▁scratch	-5323
▁allowing	-5324
▁combined	-5325
▁download	-5326
▁somewhat	-5327
▁implement	-5328
▁sensitive	-5329
▁conclusion	-5330
▁percentage	-5331
▁exploration	-5332
▁presentation	-5333
box	-5334
▁dut	-5335
▁gps	-5336
▁ham	-5337
▁ric	-5338
▁hook	-5339
▁thom	-5340
iosity	-5341
▁multi	-5342
▁roads	-5343
▁rooms	-5344
▁divide	-5345
▁linked	-5346
aneously	-5347
▁advance	-5348
▁closely	-5349
▁tracking	-5350
▁constrain	-5351
▁selection	-5352
▁statement	-5353
▁controlled	-5354
▁educational	-5355
▁psychological	-5356
gr	-5357
han	-5358
mal	-5359
ula	-5360
▁hi	-5361
▁ze	-5362
ault	-5363
lock	-5364
▁ack	-5365
▁cath	-5366
▁clus	-5367
▁excl	-5368
▁furn	-5369
▁item	-5370
▁poly	-5371
▁pump	-5372
▁tack	-5373
▁wash	-5374
illing	-5375
source	-5376
▁cents	-5377
▁datab	-5378
▁faced	-5379
▁films	-5380
▁flood	-5381
▁memor	-5382
▁phase	-5383
▁recom	-5384
▁assume	-5385
▁signed	-5386
▁spider	-5387
▁volume	-5388
▁circuit	-5389
▁federal	-5390
▁reverse	-5391
▁presence	-5392
▁wherever	-5393
▁recording	-5394
▁september	-5395
▁unc	-5396
icide	-5397
▁limb	-5398
herent	-5399
making	-5400
▁absor	-5401
▁abuse	-5402
▁bones	-5403
▁fixed	-5404
▁globe	-5405
▁excell	-5406
▁flower	-5407
▁inject	-5408
▁suffer	-5409
▁angeles	-5410
▁burning	-5411
▁finance	-5412
▁provided	-5413
▁determine	-5414
▁architects	-5415
▁electronic	-5416
▁explanation	-5417
bal	-5418
ups	-5419
▁23	-5420
cend	-5421
pass	-5422
▁aqu	-5423
▁pra	-5424
▁tap	-5425
▁wow	-5426
▁chip	-5427
▁mush	-5428
▁pink	-5429
▁rush	-5430
▁sets	-5431
▁wikip	-5432
▁string	-5433
▁whales	-5434
▁frankly	-5435
▁pacific	-5436
▁receive	-5437
▁therapy	-5438
▁collapse	-5439
▁hypothes	-5440
▁centuries	-5441
▁spiritual	-5442
▁economists	-5443
▁unexpected	-5444
▁appropriate	-5445
▁interestingly	-5446
8.	-5447
vi	-5448
tech	-5449
yeah	-5450
▁raw	-5451
▁uns	-5452
iture	-5453
▁dust	-5454
▁ears	-5455
▁mall	-5456
▁pill	-5457
ateful	-5458
▁boxes	-5459
▁flash	-5460
▁plans	-5461
▁teams	-5462
▁weigh	-5463
▁encoun	-5464
▁explos	-5465
▁ritual	-5466
▁balloon	-5467
▁conserv	-5468
▁embrace	-5469
▁solving	-5470
▁transpl	-5471
▁creature	-5472
▁instruct	-5473
▁outcomes	-5474
▁subjects	-5475
▁treating	-5476
▁villages	-5477
▁standards	-5478
alu	-5479
uce	-5480
ctic	-5481
itors	-5482
sters	-5483
▁bike	-5484
▁gulf	-5485
▁5,000	-5486
▁piano	-5487
▁shell	-5488
▁owners	-5489
▁script	-5490
▁causing	-5491
▁flowers	-5492
▁pushing	-5493
▁vessels	-5494
▁measured	-5495
▁customers	-5496
▁economies	-5497
▁application	-5498
ads	-5499
bed	-5500
des	-5501
keys	-5502
oint	-5503
▁nic	-5504
arant	-5505
uting	-5506
▁mary	-5507
▁logic	-5508
▁males	-5509
▁lifest	-5510
▁scenar	-5511
▁struck	-5512
▁airport	-5513
▁existed	-5514
▁extinct	-5515
connected	-5516
▁suggests	-5517
▁wondered	-5518
▁algorithm	-5519
▁breathing	-5520
▁celebrate	-5521
▁wikipedia	-5522
nda	-5523
▁600	-5524
▁irr	-5525
▁tro	-5526
▁vag	-5527
▁voc	-5528
eness	-5529
▁coin	-5530
▁stri	-5531
▁admit	-5532
▁expon	-5533
▁queen	-5534
▁clouds	-5535
▁enable	-5536
▁extent	-5537
▁genius	-5538
▁papers	-5539
▁classes	-5540
▁decline	-5541
▁feeding	-5542
▁offered	-5543
▁disorder	-5544
▁drinking	-5545
▁elephant	-5546
▁floating	-5547
▁destroyed	-5548
▁technique	-5549
▁translate	-5550
▁transformed	-5551
ov	-5552
wr	-5553
ris	-5554
iled	-5555
okay	-5556
oons	-5557
over	-5558
▁gla	-5559
eding	-5560
icted	-5561
▁corn	-5562
▁firm	-5563
▁icon	-5564
▁nest	-5565
▁stro	-5566
called	-5567
▁humor	-5568
▁ignor	-5569
▁legis	-5570
▁obama	-5571
▁acknow	-5572
▁agency	-5573
▁corres	-5574
▁portra	-5575
ographer	-5576
▁aspects	-5577
▁proport	-5578
▁savings	-5579
▁distinct	-5580
▁domestic	-5581
▁identical	-5582
▁instruments	-5583
▁implications	-5584
▁q	-5585
hour	-5586
iety	-5587
omic	-5588
iring	-5589
night	-5590
▁ages	-5591
▁elim	-5592
owered	-5593
▁colum	-5594
▁fifth	-5595
▁silic	-5596
▁whale	-5597
▁limits	-5598
▁scream	-5599
▁thomas	-5600
▁anticip	-5601
▁samples	-5602
▁welcome	-5603
▁district	-5604
▁engaging	-5605
▁grateful	-5606
▁shoulder	-5607
▁conventional	-5608
ias	-5609
tail	-5610
▁jul	-5611
hythm	-5612
iters	-5613
▁acts	-5614
▁adam	-5615
▁cash	-5616
▁dign	-5617
▁gras	-5618
▁june	-5619
▁lets	-5620
▁neut	-5621
▁ours	-5622
▁root	-5623
athers	-5624
▁accum	-5625
▁advoc	-5626
▁chief	-5627
▁error	-5628
▁explo	-5629
▁pharm	-5630
▁relate	-5631
▁secure	-5632
▁toilet	-5633
inations	-5634
▁careful	-5635
▁carried	-5636
▁stretch	-5637
▁instinct	-5638
▁paradigm	-5639
▁romantic	-5640
▁vaccines	-5641
▁arguments	-5642
▁continued	-5643
▁curiosity	-5644
▁measuring	-5645
▁precisely	-5646
▁privilege	-5647
▁grandfather	-5648
▁populations	-5649
hop	-5650
uum	-5651
▁du	-5652
▁fan	-5653
▁gam	-5654
▁tea	-5655
ounce	-5656
▁lone	-5657
phones	-5658
profit	-5659
▁anger	-5660
▁antar	-5661
▁aston	-5662
▁grows	-5663
▁korea	-5664
▁latin	-5665
▁liver	-5666
▁whist	-5667
eration	-5668
▁stands	-5669
▁storyt	-5670
▁prosper	-5671
conscious	-5672
▁equation	-5673
▁footprint	-5674
▁apparently	-5675
▁microscope	-5676
▁represented	-5677
▁dramatically	-5678
hen	-5679
iox	-5680
yal	-5681
kind	-5682
soft	-5683
▁cab	-5684
▁gro	-5685
▁jim	-5686
▁lun	-5687
▁tri	-5688
cence	-5689
osing	-5690
while	-5691
▁seek	-5692
▁ther	-5693
▁aster	-5694
▁fruit	-5695
▁stack	-5696
▁stere	-5697
▁assemb	-5698
▁chocol	-5699
▁colony	-5700
▁heroes	-5701
▁millenn	-5702
▁orchest	-5703
▁academic	-5704
▁infinite	-5705
▁christmas	-5706
▁consumers	-5707
▁increases	-5708
▁insurance	-5709
▁presented	-5710
▁prototype	-5711
▁spreading	-5712
▁automatically	-5713
ba	-5714
ek	-5715
cred	-5716
heim	-5717
nday	-5718
▁gon	-5719
there	-5720
▁golf	-5721
▁gray	-5722
▁leap	-5723
▁pace	-5724
▁shar	-5725
▁tent	-5726
▁dense	-5727
▁dozen	-5728
▁polio	-5729
▁style	-5730
▁tired	-5731
▁traum	-5732
▁evolve	-5733
▁fright	-5734
▁interf	-5735
▁mainly	-5736
▁phrase	-5737
▁rising	-5738
▁classic	-5739
▁impress	-5740
▁january	-5741
▁robotic	-5742
▁behavioral	-5743
▁performing	-5744
▁distributed	-5745
▁entertainment	-5746
hr	-5747
oll	-5748
ost	-5749
vas	-5750
▁22	-5751
bage	-5752
rets	-5753
rors	-5754
▁10,	-5755
▁250	-5756
▁sne	-5757
itory	-5758
using	-5759
▁cens	-5760
▁tech	-5761
imeter	-5762
struct	-5763
▁champ	-5764
▁knock	-5765
▁unbel	-5766
▁crying	-5767
▁hunger	-5768
▁pollen	-5769
▁sweden	-5770
▁authent	-5771
▁citizen	-5772
▁designs	-5773
▁guarant	-5774
▁mammals	-5775
▁mystery	-5776
▁spectac	-5777
▁complain	-5778
▁parallel	-5779
▁traveled	-5780
▁committed	-5781
▁component	-5782
▁corporate	-5783
▁journalist	-5784
▁personality	-5785
▁recognition	-5786
4.	-5787
hol	-5788
tes	-5789
▁ba	-5790
▁dh	-5791
aret	-5792
keep	-5793
rary	-5794
▁hat	-5795
▁sed	-5796
clear	-5797
think	-5798
▁1950	-5799
▁boom	-5800
▁gest	-5801
▁prem	-5802
▁aside	-5803
▁banks	-5804
▁smoke	-5805
▁walks	-5806
▁wound	-5807
▁hearts	-5808
▁ignore	-5809
▁pocket	-5810
▁robert	-5811
▁spinal	-5812
▁surely	-5813
▁habitat	-5814
▁methods	-5815
▁monkeys	-5816
▁poorest	-5817
▁surgeon	-5818
▁africans	-5819
▁obsessed	-5820
▁overcome	-5821
▁pregnant	-5822
▁properly	-5823
▁exploring	-5824
▁controlling	-5825
▁universities	-5826
ev	-5827
def	-5828
lymp	-5829
▁mim	-5830
▁sar	-5831
▁bias	-5832
▁till	-5833
▁vibr	-5834
ashing	-5835
▁blank	-5836
▁bombs	-5837
▁enemy	-5838
▁persu	-5839
▁scary	-5840
▁units	-5841
▁candid	-5842
▁immune	-5843
▁placed	-5844
▁proced	-5845
▁repair	-5846
▁thrown	-5847
▁traged	-5848
▁dancing	-5849
▁earthqu	-5850
▁kingdom	-5851
▁silicon	-5852
▁wanting	-5853
▁achieved	-5854
▁produces	-5855
▁reaching	-5856
▁unbeliev	-5857
▁colleague	-5858
▁depending	-5859
▁reference	-5860
▁virtually	-5861
▁exhibition	-5862
▁strategies	-5863
▁fortunately	-5864
ket	-5865
▁rw	-5866
ille	-5867
oned	-5868
uity	-5869
wich	-5870
▁fib	-5871
▁hal	-5872
▁hub	-5873
lines	-5874
opher	-5875
▁loop	-5876
▁manh	-5877
▁decre	-5878
▁ghana	-5879
▁olymp	-5880
▁orbit	-5881
▁roots	-5882
▁tight	-5883
▁vital	-5884
illance	-5885
▁prices	-5886
▁diverse	-5887
▁efforts	-5888
▁entered	-5889
▁license	-5890
▁raising	-5891
▁appeared	-5892
▁organize	-5893
▁household	-5894
▁connecting	-5895
▁interacting	-5896
oe	-5897
ota	-5898
war	-5899
udes	-5900
▁pul	-5901
▁tip	-5902
acing	-5903
stand	-5904
▁axis	-5905
▁carr	-5906
▁lung	-5907
▁plot	-5908
▁rail	-5909
▁tube	-5910
arency	-5911
▁delic	-5912
▁gates	-5913
▁metab	-5914
▁shake	-5915
▁tasks	-5916
▁toler	-5917
▁tries	-5918
anthrop	-5919
iveness	-5920
through	-5921
▁corals	-5922
▁golden	-5923
▁invite	-5924
▁missed	-5925
▁native	-5926
▁obstac	-5927
▁powers	-5928
children	-5929
▁inspire	-5930
▁painful	-5931
▁astronom	-5932
▁embedded	-5933
▁imagined	-5934
▁meetings	-5935
▁disorders	-5936
▁permanent	-5937
▁telephone	-5938
▁collecting	-5939
▁directions	-5940
▁underground	-5941
▁surveillance	-5942
▁transparency	-5943
agn	-5944
ban	-5945
gic	-5946
hib	-5947
itz	-5948
pal	-5949
gers	-5950
ogue	-5951
▁gig	-5952
▁spr	-5953
mates	-5954
▁boss	-5955
▁flor	-5956
▁jeff	-5957
▁peer	-5958
▁drove	-5959
▁remem	-5960
▁seeds	-5961
erences	-5962
▁barely	-5963
▁orange	-5964
▁plenty	-5965
▁appears	-5966
▁cheaper	-5967
▁removed	-5968
▁darkness	-5969
▁globally	-5970
▁microsoft	-5971
▁practices	-5972
▁philosophy	-5973
org	-5974
vin	-5975
etch	-5976
llar	-5977
otes	-5978
▁aim	-5979
▁der	-5980
▁wal	-5981
attan	-5982
▁dict	-5983
▁disg	-5984
▁elev	-5985
▁ethi	-5986
▁pand	-5987
▁trop	-5988
arters	-5989
▁guard	-5990
▁higgs	-5991
▁plays	-5992
▁pyram	-5993
▁schol	-5994
raction	-5995
▁geomet	-5996
▁legacy	-5997
▁narrow	-5998
▁pushed	-5999
▁repeat	-6000
▁collaps	-6001
▁concern	-6002
▁concert	-6003
▁density	-6004
▁muscles	-6005
▁accepted	-6006
▁attached	-6007
▁breaking	-6008
▁concepts	-6009
▁illusion	-6010
▁narrator	-6011
▁penguins	-6012
▁recovery	-6013
▁shooting	-6014
▁vertical	-6015
▁furniture	-6016
▁commitment	-6017
▁controvers	-6018
▁fascinated	-6019
▁rainforest	-6020
▁recognized	-6021
▁interactive	-6022
gun	-6023
rous	-6024
▁cas	-6025
▁syr	-6026
▁tex	-6027
esity	-6028
iform	-6029
leton	-6030
power	-6031
▁alph	-6032
▁erad	-6033
▁sacr	-6034
▁imper	-6035
▁recru	-6036
▁route	-6037
▁sales	-6038
▁veter	-6039
▁devast	-6040
▁diabet	-6041
▁escape	-6042
▁facial	-6043
▁fertil	-6044
▁filter	-6045
▁lovely	-6046
▁rescue	-6047
▁retire	-6048
▁chapter	-6049
▁herself	-6050
▁hardware	-6051
▁isolated	-6052
▁secondly	-6053
▁textbook	-6054
▁apartment	-6055
▁manhattan	-6056
▁sculpture	-6057
▁searching	-6058
▁contribute	-6059
▁engagement	-6060
▁entrepreneur	-6061
▁interactions	-6062
▁productivity	-6063
3.	-6064
tw	-6065
azz	-6066
son	-6067
val	-6068
amin	-6069
esis	-6070
nels	-6071
ship	-6072
▁bob	-6073
▁wed	-6074
iders	-6075
▁flip	-6076
▁pour	-6077
▁adopt	-6078
▁elder	-6079
▁sheep	-6080
century	-6081
▁hungry	-6082
▁latest	-6083
▁needle	-6084
▁oldest	-6085
▁writer	-6086
▁amongst	-6087
▁diagram	-6088
▁divided	-6089
▁synthes	-6090
▁captured	-6091
▁involves	-6092
▁psychiat	-6093
▁chocolate	-6094
▁lifestyle	-6095
▁volunteers	-6096
▁antibiotics	-6097
▁manufacture	-6098
▁expectations	-6099
▁neighborhoods	-6100
aks	-6101
bra	-6102
ida	-6103
osh	-6104
aust	-6105
illy	-6106
rect	-6107
walk	-6108
▁eve	-6109
▁jes	-6110
▁lux	-6111
▁tag	-6112
eared	-6113
▁diox	-6114
▁emph	-6115
▁fulf	-6116
▁mold	-6117
▁tank	-6118
ptions	-6119
▁aband	-6120
▁aspir	-6121
▁coach	-6122
▁crops	-6123
▁dirty	-6124
▁fluid	-6125
▁glaci	-6126
▁texas	-6127
▁usual	-6128
▁adjust	-6129
▁hardly	-6130
▁shadow	-6131
▁slides	-6132
▁dignity	-6133
▁granted	-6134
▁monitor	-6135
▁obesity	-6136
▁section	-6137
▁suicide	-6138
▁controls	-6139
▁laughing	-6140
▁magnetic	-6141
▁sandwich	-6142
▁stations	-6143
▁elsewhere	-6144
▁paintings	-6145
va	-6146
cut	-6147
iac	-6148
uff	-6149
case	-6150
uman	-6151
▁dim	-6152
agger	-6153
cause	-6154
isons	-6155
▁cous	-6156
ivered	-6157
▁alien	-6158
▁chaos	-6159
▁minor	-6160
▁purch	-6161
▁sheet	-6162
▁utter	-6163
▁wired	-6164
▁yield	-6165
ishment	-6166
▁behave	-6167
▁conven	-6168
▁farmer	-6169
▁martin	-6170
▁islamic	-6171
▁estimate	-6172
▁reported	-6173
▁stanford	-6174
▁uncertain	-6175
▁operations	-6176
▁cooperation	-6177
ds	-6178
list	-6179
vest	-6180
▁cod	-6181
▁nin	-6182
▁wip	-6183
angle	-6184
class	-6185
copes	-6186
flies	-6187
▁cute	-6188
▁salt	-6189
▁congo	-6190
▁likes	-6191
section	-6192
▁borrow	-6193
▁weapon	-6194
▁autonom	-6195
▁beliefs	-6196
▁council	-6197
▁dioxide	-6198
▁exposed	-6199
▁impacts	-6200
▁lecture	-6201
▁parties	-6202
▁rebuild	-6203
▁provides	-6204
▁refugees	-6205
ologically	-6206
▁hollywood	-6207
▁functional	-6208
▁historical	-6209
▁protecting	-6210
6.	-6211
wa	-6212
iel	-6213
vey	-6214
free	-6215
happ	-6216
icop	-6217
iday	-6218
lete	-6219
▁doz	-6220
ckets	-6221
eters	-6222
orter	-6223
osure	-6224
otion	-6225
▁beer	-6226
▁budd	-6227
▁fool	-6228
▁hire	-6229
▁migr	-6230
▁rely	-6231
▁actor	-6232
▁maxim	-6233
▁nobel	-6234
▁reput	-6235
▁skull	-6236
▁tears	-6237
▁wings	-6238
attered	-6239
▁agenda	-6240
▁capita	-6241
▁layers	-6242
▁locked	-6243
▁scales	-6244
▁anthrop	-6245
▁delight	-6246
▁disgust	-6247
▁fortune	-6248
▁opposed	-6249
▁recover	-6250
▁visited	-6251
▁atlantic	-6252
▁diabetes	-6253
▁dolphins	-6254
▁external	-6255
▁football	-6256
▁particle	-6257
▁dedicated	-6258
▁delivered	-6259
▁encounter	-6260
▁generated	-6261
▁intention	-6262
▁intuitive	-6263
▁recommend	-6264
▁accessible	-6265
▁incentives	-6266
▁resolution	-6267
▁simplicity	-6268
▁communications	-6269
nic	-6270
▁ts	-6271
fall	-6272
lies	-6273
lims	-6274
▁ate	-6275
▁reb	-6276
▁1990	-6277
▁clar	-6278
▁glad	-6279
▁rent	-6280
▁suck	-6281
▁guide	-6282
▁willi	-6283
▁yours	-6284
▁attrib	-6285
▁expans	-6286
▁frozen	-6287
▁paraly	-6288
▁spoken	-6289
▁talent	-6290
▁ceiling	-6291
▁charity	-6292
▁crucial	-6293
▁disrupt	-6294
▁synthetic	-6295
▁uncomfort	-6296
▁optimistic	-6297
▁programming	-6298
▁spectacular	-6299
-1	-6300
den	-6301
pox	-6302
tery	-6303
▁ash	-6304
going	-6305
owing	-6306
▁haiti	-6307
▁meter	-6308
▁ultra	-6309
▁upset	-6310
unclear	-6311
▁attend	-6312
▁commod	-6313
▁integr	-6314
▁silent	-6315
▁distant	-6316
▁focusing	-6317
▁animation	-6318
▁investing	-6319
▁reduction	-6320
▁governance	-6321
▁integrated	-6322
▁terrorists	-6323
▁transplant	-6324
▁disappeared	-6325
▁philanthrop	-6326
▁transparent	-6327
aa	-6328
aws	-6329
nam	-6330
sum	-6331
▁65	-6332
aint	-6333
ener	-6334
▁aer	-6335
aming	-6336
archy	-6337
level	-6338
▁quad	-6339
▁tort	-6340
lessly	-6341
▁chest	-6342
▁digit	-6343
▁drawn	-6344
▁manif	-6345
▁pilot	-6346
uration	-6347
▁50,000	-6348
▁dozens	-6349
▁palest	-6350
▁surviv	-6351
▁drivers	-6352
▁helicop	-6353
▁initial	-6354
▁instant	-6355
▁printed	-6356
▁suspect	-6357
▁backwards	-6358
▁confident	-6359
▁affordable	-6360
▁commission	-6361
▁chimpanzees	-6362
▁ingredients	-6363
▁neuroscience	-6364
9.	-6365
sey	-6366
born	-6367
elly	-6368
osen	-6369
▁195	-6370
▁lob	-6371
▁obl	-6372
▁rio	-6373
▁unp	-6374
inals	-6375
▁biod	-6376
▁bron	-6377
▁debt	-6378
▁dere	-6379
▁knee	-6380
▁pale	-6381
▁rice	-6382
▁ugly	-6383
dollar	-6384
▁abund	-6385
▁fuels	-6386
▁gonna	-6387
▁opens	-6388
▁paras	-6389
▁strip	-6390
▁views	-6391
forward	-6392
▁adding	-6393
▁chosen	-6394
▁intent	-6395
▁margin	-6396
▁nurses	-6397
▁output	-6398
▁satisf	-6399
▁smooth	-6400
▁theore	-6401
▁trends	-6402
american	-6403
▁bicycle	-6404
▁hanging	-6405
▁officer	-6406
▁refugee	-6407
▁touched	-6408
▁baseball	-6409
▁contains	-6410
▁database	-6411
▁dynamics	-6412
▁laughter	-6413
▁sciences	-6414
▁symmetry	-6415
▁theories	-6416
▁announced	-6417
▁anonymous	-6418
▁christian	-6419
▁conflicts	-6420
▁uncomfortable	-6421
edy	-6422
rus	-6423
▁rh	-6424
ione	-6425
▁hip	-6426
iated	-6427
▁emer	-6428
▁pupp	-6429
▁conce	-6430
▁doors	-6431
▁legit	-6432
▁naked	-6433
▁peter	-6434
▁scott	-6435
▁spark	-6436
▁stops	-6437
▁tower	-6438
▁actors	-6439
▁extrem	-6440
▁neural	-6441
▁senior	-6442
▁anxiety	-6443
▁essence	-6444
▁muslims	-6445
▁slavery	-6446
▁agencies	-6447
▁continues	-6448
▁inspiring	-6449
▁afterwards	-6450
▁biologists	-6451
▁motivation	-6452
▁struggling	-6453
▁advertising	-6454
▁discoveries	-6455
▁participants	-6456
▁characteristics	-6457
ja	-6458
oma	-6459
thal	-6460
▁enh	-6461
▁ray	-6462
cling	-6463
stage	-6464
under	-6465
▁1980	-6466
▁bubb	-6467
▁dear	-6468
▁earn	-6469
▁sink	-6470
▁tied	-6471
▁toys	-6472
heimer	-6473
usions	-6474
▁angle	-6475
▁chrom	-6476
▁finds	-6477
▁laser	-6478
▁proof	-6479
▁punch	-6480
▁titan	-6481
▁20,000	-6482
▁observ	-6483
▁richer	-6484
▁subtle	-6485
▁chances	-6486
▁letting	-6487
▁passing	-6488
▁protest	-6489
▁sisters	-6490
▁speaker	-6491
▁tragedy	-6492
▁attitude	-6493
▁crossing	-6494
▁dominant	-6495
▁surfaces	-6496
▁diagnosed	-6497
▁boundaries	-6498
▁earthquake	-6499
▁mechanisms	-6500
▁ridiculous	-6501
▁improvement	-6502
▁photography	-6503
▁probability	-6504
▁agricultural	-6505
▁breakthrough	-6506
har	-6507
ares	-6508
ober	-6509
sing	-6510
view	-6511
when	-6512
▁10-	-6513
▁nit	-6514
▁wet	-6515
▁wra	-6516
ctica	-6517
enger	-6518
▁cham	-6519
▁dish	-6520
▁kiss	-6521
▁labs	-6522
▁quit	-6523
▁wise	-6524
▁cliff	-6525
▁craft	-6526
▁drill	-6527
▁evalu	-6528
▁hello	-6529
▁hemis	-6530
▁lungs	-6531
▁relax	-6532
▁smith	-6533
▁spell	-6534
▁uncle	-6535
▁county	-6536
▁emphas	-6537
▁heaven	-6538
▁partly	-6539
▁perpet	-6540
▁robust	-6541
▁stable	-6542
▁circles	-6543
▁clients	-6544
▁painted	-6545
▁picking	-6546
▁reports	-6547
▁traject	-6548
▁facility	-6549
▁lighting	-6550
▁dependent	-6551
▁dimension	-6552
▁elephants	-6553
▁musicians	-6554
▁terrorist	-6555
▁antarctica	-6556
▁demonstrate	-6557
▁innovations	-6558
sp	-6559
udd	-6560
mers	-6561
▁aes	-6562
front	-6563
▁alco	-6564
▁dive	-6565
▁hier	-6566
▁mail	-6567
▁mood	-6568
▁viet	-6569
▁4,000	-6570
▁schem	-6571
▁skept	-6572
ughters	-6573
▁jewish	-6574
▁rarely	-6575
▁rating	-6576
▁sacred	-6577
▁served	-6578
▁settle	-6579
▁consume	-6580
▁disturb	-6581
▁october	-6582
▁pointed	-6583
▁reduced	-6584
▁educated	-6585
▁repeated	-6586
▁calculate	-6587
▁elections	-6588
▁highlight	-6589
▁ignorance	-6590
▁mechanics	-6591
▁objective	-6592
▁identified	-6593
▁originally	-6594
▁suggesting	-6595
▁consequence	-6596
▁electronics	-6597
▁intervention	-6598
bar	-6599
hal	-6600
lyn	-6601
▁ak	-6602
▁alz	-6603
▁ceo	-6604
▁dow	-6605
▁pad	-6606
alian	-6607
▁bars	-6608
▁nets	-6609
▁nick	-6610
▁tear	-6611
▁wing	-6612
makers	-6613
▁bears	-6614
▁bible	-6615
▁cryst	-6616
▁edges	-6617
▁gases	-6618
▁links	-6619
▁monit	-6620
▁athlet	-6621
▁emerge	-6622
▁landed	-6623
▁lawyer	-6624
▁linear	-6625
▁neuron	-6626
▁poison	-6627
▁reveal	-6628
▁shrimp	-6629
▁simult	-6630
▁stages	-6631
▁uganda	-6632
▁victim	-6633
▁briefly	-6634
▁sensory	-6635
▁smoking	-6636
▁aircraft	-6637
▁dinosaur	-6638
▁incident	-6639
▁returned	-6640
▁alzheimer	-6641
▁excellent	-6642
▁strangers	-6643
▁assumptions	-6644
▁participation	-6645
wow	-6646
▁0.	-6647
▁mi	-6648
▁od	-6649
▁bol	-6650
▁boo	-6651
▁sin	-6652
▁bats	-6653
▁dump	-6654
▁eleg	-6655
▁laid	-6656
▁pile	-6657
▁soap	-6658
parent	-6659
utical	-6660
▁chron	-6661
▁exped	-6662
▁flows	-6663
▁italy	-6664
▁marry	-6665
▁panel	-6666
▁pione	-6667
▁seats	-6668
▁threw	-6669
▁thumb	-6670
astroph	-6671
▁injury	-6672
▁regret	-6673
▁tribes	-6674
▁tricks	-6675
▁consult	-6676
▁failing	-6677
▁promote	-6678
▁soldier	-6679
▁statist	-6680
▁figuring	-6681
▁includes	-6682
▁informed	-6683
▁manifest	-6684
▁variation	-6685
▁additional	-6686
▁capability	-6687
▁dictionary	-6688
▁treatments	-6689
▁predictions	-6690
▁biodiversity	-6691
▁photographer	-6692
▁unbelievable	-6693
ari	-6694
aze	-6695
hus	-6696
▁32	-6697
ardo	-6698
fold	-6699
phor	-6700
▁'60	-6701
▁191	-6702
▁wid	-6703
▁1960	-6704
▁caps	-6705
▁clay	-6706
▁neat	-6707
▁sits	-6708
▁disag	-6709
▁fract	-6710
▁realm	-6711
▁respo	-6712
unction	-6713
▁confir	-6714
▁merely	-6715
▁prosec	-6716
▁twenty	-6717
▁happier	-6718
▁pulling	-6719
aceutical	-6720
▁artistic	-6721
▁inherent	-6722
▁reminded	-6723
▁speakers	-6724
▁gradually	-6725
▁physicist	-6726
▁separated	-6727
▁catastroph	-6728
▁ecosystems	-6729
▁mysterious	-6730
▁experimental	-6731
▁globalization	-6732
▁grandchildren	-6733
ua	-6734
wl	-6735
ato	-6736
rid	-6737
top	-6738
▁ol	-6739
izer	-6740
talk	-6741
▁120	-6742
▁ain	-6743
capes	-6744
igned	-6745
third	-6746
▁beet	-6747
▁cats	-6748
▁cott	-6749
▁mate	-6750
▁neck	-6751
▁prec	-6752
▁rose	-6753
mingly	-6754
▁array	-6755
▁arrow	-6756
▁begun	-6757
▁blame	-6758
▁mayor	-6759
▁nerve	-6760
▁reefs	-6761
▁branch	-6762
▁combat	-6763
▁funded	-6764
▁poster	-6765
chnology	-6766
▁chromos	-6767
▁ethical	-6768
▁hackers	-6769
▁lawyers	-6770
▁symbols	-6771
▁warning	-6772
▁flexible	-6773
▁restrict	-6774
▁accidents	-6775
▁adventure	-6776
▁expanding	-6777
▁frequency	-6778
▁immediate	-6779
▁initially	-6780
▁nutrition	-6781
▁positions	-6782
▁predicted	-6783
▁prisoners	-6784
▁teenagers	-6785
▁geographic	-6786
▁permission	-6787
▁reputation	-6788
▁underlying	-6789
rix	-6790
▁95	-6791
ilit	-6792
part	-6793
yard	-6794
bered	-6795
field	-6796
▁adap	-6797
▁gand	-6798
▁meal	-6799
▁stom	-6800
▁algae	-6801
▁balls	-6802
▁carol	-6803
▁genoc	-6804
▁johns	-6805
▁reson	-6806
▁trail	-6807
igation	-6808
▁adoles	-6809
▁assess	-6810
▁breaks	-6811
▁ensure	-6812
▁rivers	-6813
▁rwanda	-6814
▁stores	-6815
▁turkey	-6816
▁volcan	-6817
fficient	-6818
▁analyze	-6819
▁automob	-6820
▁besides	-6821
▁helpful	-6822
▁origami	-6823
▁pyramid	-6824
▁conclude	-6825
▁ethiopia	-6826
▁scenario	-6827
▁shopping	-6828
▁smallpox	-6829
▁depressed	-6830
▁documents	-6831
▁suggested	-6832
▁determined	-6833
▁hemisphere	-6834
▁connectivity	-6835
▁collaborative	-6836
▁2,	-6837
▁ng	-6838
▁ub	-6839
ubes	-6840
west	-6841
▁ink	-6842
iment	-6843
state	-6844
▁bure	-6845
▁gods	-6846
▁guns	-6847
▁cambr	-6848
▁flour	-6849
▁holds	-6850
▁joint	-6851
▁schiz	-6852
related	-6853
▁arctic	-6854
▁decent	-6855
▁thresh	-6856
▁waters	-6857
▁comprom	-6858
▁enterpr	-6859
▁fastest	-6860
▁session	-6861
▁shelter	-6862
▁smarter	-6863
▁targets	-6864
▁entering	-6865
▁extended	-6866
▁sleeping	-6867
▁copyright	-6868
▁daughters	-6869
▁exception	-6870
▁passwords	-6871
▁supported	-6872
▁industries	-6873
▁inevitable	-6874
▁satellites	-6875
▁astonishing	-6876
▁experiencing	-6877
▁surprisingly	-6878
▁significantly	-6879
mod	-6880
apor	-6881
oids	-6882
osal	-6883
▁ell	-6884
▁lit	-6885
clock	-6886
iance	-6887
ilize	-6888
inder	-6889
▁brut	-6890
▁sole	-6891
encing	-6892
market	-6893
▁brave	-6894
▁civic	-6895
▁jelly	-6896
▁owner	-6897
▁safer	-6898
▁basket	-6899
▁buried	-6900
▁caring	-6901
▁domain	-6902
▁fought	-6903
▁killer	-6904
▁oxford	-6905
▁alcohol	-6906
▁enforce	-6907
▁females	-6908
▁imaging	-6909
▁persist	-6910
▁wheelch	-6911
▁throwing	-6912
▁unlikely	-6913
▁wildlife	-6914
▁abilities	-6915
▁economist	-6916
▁investors	-6917
▁radically	-6918
▁autonomous	-6919
▁translated	-6920
▁constructed	-6921
ga	-6922
hh	-6923
vy	-6924
opy	-6925
toc	-6926
▁26	-6927
▁lg	-6928
▁os	-6929
half	-6930
ulum	-6931
viet	-6932
▁amy	-6933
▁bos	-6934
▁gab	-6935
erved	-6936
ifice	-6937
tocin	-6938
▁acid	-6939
▁penn	-6940
▁tuna	-6941
▁award	-6942
▁mixed	-6943
▁screw	-6944
▁silly	-6945
▁spots	-6946
▁metric	-6947
▁panels	-6948
▁pursue	-6949
▁sensor	-6950
▁sevent	-6951
▁shaped	-6952
▁shrink	-6953
▁vacuum	-6954
▁aggress	-6955
▁florida	-6956
▁fragile	-6957
▁revenue	-6958
▁routine	-6959
▁shocked	-6960
▁threats	-6961
▁answered	-6962
▁arrested	-6963
▁dialogue	-6964
▁invested	-6965
▁oxytocin	-6966
▁expansion	-6967
▁primarily	-6968
▁sentences	-6969
▁volunteer	-6970
▁occasionally	-6971
ela	-6972
fin	-6973
ocr	-6974
oir	-6975
ura	-6976
▁bf	-6977
▁mt	-6978
bits	-6979
iens	-6980
rich	-6981
umes	-6982
▁dys	-6983
▁hen	-6984
▁ooh	-6985
inson	-6986
▁duck	-6987
▁mode	-6988
▁publ	-6989
▁rome	-6990
▁whis	-6991
itudes	-6992
othing	-6993
▁agent	-6994
▁audio	-6995
▁burst	-6996
▁fiber	-6997
▁miser	-6998
▁parli	-6999
▁tribe	-7000
ication	-7001
▁compos	-7002
▁curren	-7003
▁insist	-7004
▁sticks	-7005
▁contrad	-7006
▁convert	-7007
▁deliber	-7008
▁founded	-7009
▁imagery	-7010
▁immense	-7011
▁liberal	-7012
▁observe	-7013
▁paradox	-7014
▁printer	-7015
▁december	-7016
▁leverage	-7017
▁measures	-7018
▁neurolog	-7019
▁proposed	-7020
▁schizoph	-7021
▁forgotten	-7022
forestation	-7023
▁frustrated	-7024
▁proportion	-7025
▁observation	-7026
▁architectural	-7027
▁professionals	-7028
ata	-7029
cel	-7030
dam	-7031
▁3.	-7032
▁nu	-7033
iece	-7034
▁800	-7035
▁cig	-7036
▁spa	-7037
▁tut	-7038
cking	-7039
▁bags	-7040
▁file	-7041
▁stab	-7042
▁chips	-7043
▁elite	-7044
▁index	-7045
▁lifes	-7046
▁opera	-7047
▁enthus	-7048
▁intrig	-7049
▁trucks	-7050
▁widely	-7051
▁farming	-7052
▁forming	-7053
▁hunting	-7054
▁involve	-7055
▁magical	-7056
▁miracle	-7057
▁category	-7058
▁climbing	-7059
▁confused	-7060
▁robotics	-7061
▁skeleton	-7062
▁broadcast	-7063
▁disappoint	-7064
▁resilience	-7065
▁journalists	-7066
▁capabilities	-7067
▁transmission	-7068
▁administration	-7069
▁pharmaceutical	-7070
ann	-7071
bru	-7072
ecd	-7073
ndr	-7074
ras	-7075
▁tu	-7076
ache	-7077
agon	-7078
arre	-7079
edge	-7080
olit	-7081
play	-7082
▁alb	-7083
▁dub	-7084
▁tes	-7085
ville	-7086
▁beij	-7087
▁buff	-7088
▁butt	-7089
▁chim	-7090
▁crew	-7091
▁gate	-7092
▁lamp	-7093
▁murd	-7094
▁sulf	-7095
apping	-7096
friend	-7097
soever	-7098
▁bored	-7099
▁cable	-7100
▁crick	-7101
▁grace	-7102
▁nurse	-7103
▁parks	-7104
▁physi	-7105
▁sharp	-7106
▁weeke	-7107
athered	-7108
▁approx	-7109
▁arrive	-7110
▁august	-7111
▁curric	-7112
▁regime	-7113
▁soviet	-7114
▁stroke	-7115
▁tackle	-7116
▁adopted	-7117
▁deserve	-7118
▁elderly	-7119
▁pretend	-7120
▁regener	-7121
▁spanish	-7122
▁writers	-7123
▁articles	-7124
▁choosing	-7125
▁fabulous	-7126
▁included	-7127
▁innocent	-7128
▁reducing	-7129
▁stereoty	-7130
▁versions	-7131
▁gathering	-7132
▁instantly	-7133
▁primitive	-7134
▁similarly	-7135
▁approaches	-7136
▁explaining	-7137
▁hypothesis	-7138
▁medication	-7139
▁simulation	-7140
▁whatsoever	-7141
▁authorities	-7142
▁schizophren	-7143
▁translation	-7144
▁contemporary	-7145
▁successfully	-7146
▁representation	-7147
11	-7148
▁gi	-7149
agos	-7150
bola	-7151
conf	-7152
erer	-7153
▁biz	-7154
▁bug	-7155
▁fer	-7156
▁kar	-7157
▁pix	-7158
▁sew	-7159
▁upd	-7160
adays	-7161
athan	-7162
happy	-7163
oning	-7164
oying	-7165
riger	-7166
world	-7167
worth	-7168
▁brib	-7169
▁leaf	-7170
▁plug	-7171
▁tone	-7172
icious	-7173
mented	-7174
ortion	-7175
semble	-7176
▁caves	-7177
▁ebola	-7178
▁foods	-7179
▁immig	-7180
▁pairs	-7181
▁stake	-7182
▁wider	-7183
▁burned	-7184
▁chairs	-7185
▁cheese	-7186
▁inches	-7187
▁matrix	-7188
▁recept	-7189
▁silver	-7190
▁affects	-7191
▁bubbles	-7192
▁closing	-7193
▁elected	-7194
▁emerged	-7195
▁garbage	-7196
▁graphic	-7197
▁rolling	-7198
▁selfish	-7199
▁wealthy	-7200
▁channels	-7201
▁colonies	-7202
▁covering	-7203
▁fraction	-7204
▁judgment	-7205
▁mosquito	-7206
▁nowadays	-7207
▁openness	-7208
▁refriger	-7209
▁strongly	-7210
▁survived	-7211
▁infection	-7212
▁physician	-7213
▁attractive	-7214
▁consistent	-7215
▁difficulty	-7216
▁parliament	-7217
▁association	-7218
▁demonstration	-7219
och	-7220
see	-7221
who	-7222
bing	-7223
road	-7224
zero	-7225
▁'90	-7226
▁mri	-7227
▁nom	-7228
▁sel	-7229
maker	-7230
▁asks	-7231
▁dies	-7232
▁grat	-7233
▁hind	-7234
▁inex	-7235
▁loan	-7236
▁odds	-7237
icient	-7238
▁arist	-7239
▁armed	-7240
▁excit	-7241
▁greek	-7242
▁indig	-7243
▁plain	-7244
▁rehab	-7245
▁shout	-7246
▁squee	-7247
▁arabic	-7248
▁norway	-7249
▁orient	-7250
▁saturn	-7251
▁ticket	-7252
▁tracks	-7253
▁unable	-7254
▁bizarre	-7255
▁discrim	-7256
▁enables	-7257
▁luckily	-7258
▁prepare	-7259
▁request	-7260
▁tedtalk	-7261
▁tissues	-7262
▁optimism	-7263
▁stranger	-7264
▁healthier	-7265
▁nutrients	-7266
▁reactions	-7267
▁compelling	-7268
▁disability	-7269
▁traditions	-7270
▁wheelchair	-7271
▁genetically	-7272
▁unconscious	-7273
▁instructions	-7274
ani	-7275
che	-7276
ania	-7277
eday	-7278
four	-7279
icks	-7280
oded	-7281
▁bin	-7282
▁loo	-7283
ading	-7284
amine	-7285
emics	-7286
lings	-7287
opard	-7288
otted	-7289
▁anes	-7290
▁brun	-7291
▁dism	-7292
▁forb	-7293
▁hipp	-7294
▁hors	-7295
▁phos	-7296
▁pige	-7297
bruary	-7298
engine	-7299
▁cabin	-7300
▁fraud	-7301
▁gotta	-7302
▁incor	-7303
▁intim	-7304
▁spray	-7305
▁supre	-7306
▁tweet	-7307
▁unpre	-7308
parents	-7309
▁convey	-7310
▁ending	-7311
▁formal	-7312
▁garage	-7313
▁jumped	-7314
changing	-7315
▁beneath	-7316
▁dolphin	-7317
▁drought	-7318
▁footage	-7319
▁hitting	-7320
▁methane	-7321
▁minimum	-7322
▁periods	-7323
▁prisons	-7324
▁secrets	-7325
▁someday	-7326
▁staying	-7327
▁accounts	-7328
▁contrary	-7329
▁february	-7330
▁homework	-7331
▁keyboard	-7332
▁socially	-7333
▁suffered	-7334
▁cambridge	-7335
▁intuition	-7336
▁paralyzed	-7337
▁perceived	-7338
▁qualities	-7339
▁realizing	-7340
▁renewable	-7341
▁threshold	-7342
▁extinction	-7343
▁initiative	-7344
▁structural	-7345
▁supporting	-7346
▁trajectory	-7347
▁competitive	-7348
▁description	-7349
▁conservative	-7350
▁mathematicians	-7351
▁simultaneously	-7352
tr	-7353
eds	-7354
▁kb	-7355
emen	-7356
lers	-7357
▁jet	-7358
▁lou	-7359
▁vel	-7360
human	-7361
rical	-7362
stone	-7363
▁cert	-7364
▁cree	-7365
▁dumb	-7366
▁triv	-7367
▁zeal	-7368
asters	-7369
employ	-7370
rained	-7371
▁asian	-7372
▁downt	-7373
▁fears	-7374
▁jesus	-7375
▁kills	-7376
▁pride	-7377
▁ships	-7378
▁stunt	-7379
▁tempt	-7380
▁twist	-7381
▁valid	-7382
inarily	-7383
tending	-7384
▁column	-7385
▁dragon	-7386
▁export	-7387
▁scores	-7388
▁strike	-7389
▁tumors	-7390
cedented	-7391
quarters	-7392
▁demands	-7393
▁prostit	-7394
▁russian	-7395
▁serving	-7396
▁drawings	-7397
▁genocide	-7398
▁improved	-7399
▁navigate	-7400
▁scholars	-7401
▁tendency	-7402
▁expertise	-7403
▁fortunate	-7404
▁improving	-7405
▁curriculum	-7406
▁excitement	-7407
▁interviewed	-7408
▁corporations	-7409
▁institutional	-7410
▁unprecedented	-7411
▁vulnerability	-7412
bow	-7413
ctu	-7414
▁ga	-7415
aded	-7416
agen	-7417
aran	-7418
char	-7419
lson	-7420
viol	-7421
▁gir	-7422
▁jam	-7423
▁jon	-7424
▁lap	-7425
itous	-7426
▁bond	-7427
▁deli	-7428
▁frog	-7429
▁gaps	-7430
▁germ	-7431
▁infl	-7432
▁irre	-7433
▁mild	-7434
▁rats	-7435
▁sail	-7436
nostic	-7437
▁2009,	-7438
▁anten	-7439
▁chile	-7440
▁devil	-7441
▁herit	-7442
▁owned	-7443
▁satur	-7444
▁shots	-7445
▁tends	-7446
▁trash	-7447
angible	-7448
working	-7449
▁30,000	-7450
▁assets	-7451
▁binary	-7452
▁empire	-7453
▁makers	-7454
▁mining	-7455
▁rhythm	-7456
▁upside	-7457
▁beating	-7458
▁glasses	-7459
▁restore	-7460
▁applying	-7461
▁clothing	-7462
▁detailed	-7463
▁distingu	-7464
▁genetics	-7465
▁homeless	-7466
▁mobility	-7467
▁pandemic	-7468
▁remained	-7469
▁completed	-7470
▁factories	-7471
▁microbial	-7472
▁ownership	-7473
▁replicate	-7474
▁expectancy	-7475
▁prediction	-7476
▁profoundly	-7477
▁prosperity	-7478
▁remembered	-7479
▁terrifying	-7480
▁threatened	-7481
▁computation	-7482
▁exponential	-7483
asy	-7484
isy	-7485
lfr	-7486
rol	-7487
sah	-7488
ague	-7489
illa	-7490
imag	-7491
kins	-7492
leep	-7493
pled	-7494
rant	-7495
uded	-7496
wind	-7497
xual	-7498
▁20,	-7499
▁fbi	-7500
aving	-7501
▁brid	-7502
▁fest	-7503
▁gore	-7504
▁orph	-7505
▁palm	-7506
▁soup	-7507
minute	-7508
theast	-7509
urable	-7510
▁brows	-7511
▁bucks	-7512
▁membr	-7513
▁outer	-7514
▁tooth	-7515
▁annual	-7516
▁cosmic	-7517
▁excuse	-7518
▁pedest	-7519
▁tragic	-7520
▁tunnel	-7521
andering	-7522
▁compete	-7523
▁harness	-7524
▁highway	-7525
▁neutral	-7526
▁profits	-7527
▁spreads	-7528
▁trigger	-7529
▁winning	-7530
▁activist	-7531
▁friendly	-7532
▁honestly	-7533
▁intended	-7534
▁peaceful	-7535
▁striking	-7536
▁unemploy	-7537
▁detection	-7538
▁explosion	-7539
▁gentleman	-7540
▁remaining	-7541
▁substance	-7542
▁facilities	-7543
▁physicians	-7544
▁reasonable	-7545
▁telescopes	-7546
▁achievement	-7547
▁approaching	-7548
▁beautifully	-7549
▁demographic	-7550
▁established	-7551
▁uncertainty	-7552
▁collectively	-7553
▁humanitarian	-7554
▁photographed	-7555
▁deforestation	-7556
gi	-7557
aid	-7558
eda	-7559
ini	-7560
ola	-7561
▁gy	-7562
ails	-7563
away	-7564
cost	-7565
iban	-7566
ifer	-7567
long	-7568
made	-7569
▁'80	-7570
▁sna	-7571
▁une	-7572
chool	-7573
heart	-7574
lades	-7575
umble	-7576
▁arth	-7577
▁bold	-7578
▁cake	-7579
▁damn	-7580
▁lean	-7581
▁lord	-7582
▁nurt	-7583
▁pigs	-7584
▁sett	-7585
▁fancy	-7586
▁spont	-7587
▁steal	-7588
▁aggreg	-7589
▁claims	-7590
▁cotton	-7591
▁defend	-7592
▁headed	-7593
▁loving	-7594
▁negoti	-7595
interest	-7596
▁beijing	-7597
▁cigaret	-7598
▁courses	-7599
▁horizon	-7600
▁manager	-7601
▁mapping	-7602
▁percept	-7603
▁portion	-7604
▁customer	-7605
▁delivery	-7606
▁explains	-7607
▁historic	-7608
▁musician	-7609
▁preserve	-7610
▁purposes	-7611
▁agreement	-7612
▁banglades	-7613
▁diagnosis	-7614
▁expecting	-7615
▁extension	-7616
▁meanwhile	-7617
▁responses	-7618
▁challenged	-7619
▁comparison	-7620
▁helicopter	-7621
▁physicists	-7622
ati	-7623
udi	-7624
▁rb	-7625
fast	-7626
gent	-7627
neys	-7628
onic	-7629
take	-7630
▁dop	-7631
▁joe	-7632
▁luc	-7633
▁rac	-7634
▁vit	-7635
anged	-7636
etics	-7637
opath	-7638
▁dawn	-7639
▁susp	-7640
iences	-7641
▁2000,	-7642
▁2008,	-7643
▁2010,	-7644
▁badly	-7645
▁brook	-7646
▁camps	-7647
▁derek	-7648
▁hired	-7649
▁inhab	-7650
▁moore	-7651
▁patch	-7652
▁pound	-7653
▁ratio	-7654
▁shore	-7655
▁winds	-7656
otherap	-7657
▁beaten	-7658
▁dating	-7659
▁luxury	-7660
▁nearby	-7661
▁occurs	-7662
▁recess	-7663
▁safely	-7664
▁skelet	-7665
▁subway	-7666
▁tongue	-7667
▁bottles	-7668
▁charges	-7669
▁engines	-7670
▁offices	-7671
▁uniform	-7672
▁correspo	-7673
▁listened	-7674
▁morality	-7675
▁perceive	-7676
▁precious	-7677
▁substant	-7678
▁conducted	-7679
▁workforce	-7680
▁categories	-7681
▁continuing	-7682
▁continuous	-7683
▁discipline	-7684
▁encouraged	-7685
▁impressive	-7686
▁influenced	-7687
▁newspapers	-7688
▁researcher	-7689
▁psychologists	-7690
100	-7691
auc	-7692
dle	-7693
gal	-7694
ora	-7695
two	-7696
▁85	-7697
▁ja	-7698
ilty	-7699
pend	-7700
▁202	-7701
▁ner	-7702
▁piz	-7703
▁ros	-7704
arest	-7705
burgh	-7706
▁2050	-7707
▁bend	-7708
▁genu	-7709
▁homo	-7710
▁indo	-7711
▁july	-7712
▁melt	-7713
▁pref	-7714
▁rabb	-7715
▁tsun	-7716
▁urge	-7717
▁woke	-7718
active	-7719
mental	-7720
▁fault	-7721
▁items	-7722
▁loves	-7723
▁plast	-7724
▁poems	-7725
▁spain	-7726
▁spons	-7727
▁stair	-7728
looking	-7729
perform	-7730
saharan	-7731
▁butter	-7732
▁canopy	-7733
▁client	-7734
▁crimes	-7735
▁degrad	-7736
▁hiding	-7737
▁insane	-7738
▁rubber	-7739
▁sketch	-7740
▁sunday	-7741
▁vagina	-7742
▁analogy	-7743
▁arrange	-7744
▁dressed	-7745
▁educate	-7746
▁fluores	-7747
▁hardest	-7748
▁leather	-7749
▁located	-7750
▁mindset	-7751
▁downtown	-7752
▁failures	-7753
▁shipping	-7754
▁terribly	-7755
▁airplanes	-7756
▁magnitude	-7757
▁orchestra	-7758
▁passenger	-7759
▁strategic	-7760
▁aggressive	-7761
▁regardless	-7762
▁discovering	-7763
▁enforcement	-7764
▁restaurants	-7765
▁concentration	-7766
ker	-7767
law	-7768
mar	-7769
▁uk	-7770
asty	-7771
oran	-7772
outs	-7773
star	-7774
▁awk	-7775
▁hob	-7776
▁tie	-7777
0,000	-7778
bling	-7779
break	-7780
ester	-7781
grade	-7782
licit	-7783
▁acou	-7784
▁aunt	-7785
▁bind	-7786
▁blah	-7787
▁gear	-7788
▁leon	-7789
▁mike	-7790
▁rape	-7791
▁charl	-7792
▁drown	-7793
▁funds	-7794
▁incar	-7795
▁loans	-7796
▁proto	-7797
▁royal	-7798
▁santa	-7799
▁sixth	-7800
▁addict	-7801
▁campus	-7802
▁drones	-7803
▁estate	-7804
▁excess	-7805
▁girlfr	-7806
▁improv	-7807
▁motors	-7808
▁parach	-7809
▁proved	-7810
▁purple	-7811
▁awkward	-7812
▁barrier	-7813
▁enlight	-7814
▁ignored	-7815
▁italian	-7816
▁landing	-7817
▁metabol	-7818
▁profile	-7819
▁propose	-7820
▁pursuit	-7821
▁taliban	-7822
▁bathroom	-7823
▁believes	-7824
▁cartoons	-7825
▁concerns	-7826
▁connects	-7827
▁gathered	-7828
▁insights	-7829
▁supplies	-7830
▁medicines	-7831
▁nonprofit	-7832
▁obstacles	-7833
▁sacrifice	-7834
▁temporary	-7835
▁assistance	-7836
▁assumption	-7837
▁previously	-7838
▁legislation	-7839
▁limitations	-7840
▁storytelling	-7841
▁straightforward	-7842
bm	-7843
bye	-7844
ema	-7845
iro	-7846
▁28	-7847
▁33	-7848
▁36	-7849
▁si	-7850
chem	-7851
ugal	-7852
utan	-7853
▁bot	-7854
▁tox	-7855
attoo	-7856
icial	-7857
itzer	-7858
rence	-7859
▁bust	-7860
▁chop	-7861
▁dile	-7862
▁eric	-7863
▁heal	-7864
▁holy	-7865
▁jose	-7866
▁ngos	-7867
▁thus	-7868
▁tune	-7869
▁wrap	-7870
orious	-7871
▁amate	-7872
▁comet	-7873
▁cruel	-7874
▁fires	-7875
▁ingen	-7876
▁phant	-7877
▁redes	-7878
▁shelf	-7879
▁syndr	-7880
▁wheat	-7881
▁apolog	-7882
▁burden	-7883
▁chains	-7884
▁endang	-7885
▁entrop	-7886
▁execut	-7887
▁harbor	-7888
▁manner	-7889
▁manual	-7890
▁nights	-7891
▁planes	-7892
▁propag	-7893
▁subsid	-7894
▁tattoo	-7895
▁traits	-7896
▁upload	-7897
▁closest	-7898
▁flowing	-7899
▁genuine	-7900
▁patents	-7901
▁pockets	-7902
▁rethink	-7903
▁screens	-7904
▁stepped	-7905
▁supreme	-7906
▁venture	-7907
▁zealand	-7908
▁counting	-7909
▁dopamine	-7910
▁generous	-7911
▁interven	-7912
▁mushroom	-7913
▁palestin	-7914
▁portrait	-7915
▁prostate	-7916
▁reliable	-7917
▁alexander	-7918
▁glamorous	-7919
▁graduated	-7920
▁residents	-7921
otechnology	-7922
▁accomplish	-7923
▁classrooms	-7924
▁constraints	-7925
▁encouraging	-7926
▁reconstruct	-7927
▁grandparents	-7928
ye	-7929
aby	-7930
asm	-7931
fly	-7932
▁lt	-7933
good	-7934
quis	-7935
▁coc	-7936
▁jar	-7937
▁tin	-7938
▁voy	-7939
arrhe	-7940
enous	-7941
pless	-7942
▁fits	-7943
▁josh	-7944
▁rick	-7945
▁stor	-7946
▁tanz	-7947
weight	-7948
▁drone	-7949
▁entry	-7950
▁	-7951
e	-7952
t	-7953
a	-7954
o	-7955
i	-7956
n	-7957
s	-7958
r	-7959
h	-7960
l	-7961
d	-7962
u	-7963
c	-7964
m	-7965
w	-7966
y	-7967
g	-7968
f	-7969
p	-7970
,	-7971
b	-7972
.	-7973
v	-7974
k	-7975
'	-7976
-	-7977
"	-7978
x	-7979
j	-7980
0	-7981
?	-7982
z	-7983
q	-7984
:	-7985
1	-7986
2	-7987
5	-7988
9	-7989
3	-7990
♫	-7991
;	-7992
4	-7993
8	-7994
6	-7995
