<pad>	0
<s>	0
</s>	0
<unk>	0
我们	-0
▁这	-1
一个	-2
▁我	-3
▁我们	-4
他们	-5
可以	-6
▁但	-7
▁在	-8
这个	-9
▁你	-10
就是	-11
什么	-12
因为	-13
这些	-14
▁而	-15
如果	-16
▁所	-17
没有	-18
▁他们	-19
现在	-20
▁它	-21
▁那	-22
知道	-23
问题	-24
▁所以	-25
的人	-26
不是	-27
▁这是	-28
▁因为	-29
世界	-30
自己	-31
▁当	-32
▁但是	-33
非常	-34
开始	-35
这样	-36
一些	-37
▁他	-38
的时	-39
▁是	-40
需要	-41
▁如果	-42
我的	-43
看到	-44
可能	-45
然后	-46
00	-47
的是	-48
▁有	-49
你们	-50
--	-51
▁不	-52
一种	-53
已经	-54
很多	-55
工作	-56
我们的	-57
人们	-58
东西	-59
▁然后	-60
▁并	-61
的时候	-62
的事	-63
▁“	-64
它们	-65
认为	-66
——	-67
▁也	-68
▁就	-69
发现	-70
所有	-71
▁这些	-72
那些	-73
▁现在	-74
或者	-75
研究	-76
发生	-77
▁这个	-78
大的	-79
国家	-80
一样	-81
孩子	-82
到了	-83
不同	-84
如何	-85
。”	-86
其他	-87
生活	-88
还有	-89
重要	-90
的一	-91
▁和	-92
大家	-93
地方	-94
▁一	-95
你的	-96
起来	-97
美国	-98
通过	-99
这是	-100
▁对	-101
这种	-102
好的	-103
都是	-104
告诉	-105
▁以	-106
改变	-107
▁她	-108
..	-109
部分	-110
设计	-111
能够	-112
方式	-113
▁从	-114
任何	-115
人的	-116
为什么	-117
使用	-118
▁来	-119
中的	-120
▁让	-121
关于	-122
人类	-123
只是	-124
这里	-125
系统	-126
故事	-127
▁而且	-128
事实	-129
▁一个	-130
不会	-131
怎么	-132
时间	-133
▁最	-134
进行	-135
一下	-136
应该	-137
技术	-138
数据	-139
因此	-140
一起	-141
希望	-142
社会	-143
觉得	-144
是一个	-145
科学	-146
必须	-147
来的	-148
上的	-149
来说	-150
▁它们	-151
实际	-152
他们的	-153
成为	-154
这样的	-155
正在	-156
不能	-157
这一	-158
自己的	-159
个人	-160
信息	-161
还是	-162
一次	-163
的事情	-164
到的	-165
▁我想	-166
▁因此	-167
生物	-168
方法	-169
样的	-170
创造	-171
▁并且	-172
真的	-173
的东西	-174
▁比	-175
今天	-176
▁如果你	-177
我想	-178
喜欢	-179
▁或者	-180
公司	-181
▁每	-182
发展	-183
完全	-184
存在	-185
做的	-186
▁那么	-187
新的	-188
20	-189
谢谢	-190
甚至	-191
同时	-192
了一个	-193
▁就是	-194
生命	-195
了一	-196
这么	-197
那个	-198
更多	-199
大脑	-200
之后	-201
▁其	-202
影响	-203
事实上	-204
▁这就是	-205
解决	-206
作为	-207
他的	-208
经济	-209
▁我的	-210
帮助	-211
实际上	-212
真正	-213
▁第	-214
了解	-215
的问题	-216
决定	-217
情况	-218
▁都	-219
,“	-220
城市	-221
的地方	-222
结果	-223
机器	-224
为了	-225
实验	-226
有一个	-227
也是	-228
▁还有	-229
简单	-230
:“	-231
▁大	-232
如此	-233
过去	-234
选择	-235
▁你们	-236
得到	-237
许多	-238
想法	-239
意识	-240
看看	-241
动物	-242
组织	-243
是在	-244
不同的	-245
那里	-246
两个	-247
相信	-248
时候	-249
一直	-250
19	-251
事情	-252
仅仅	-253
▁以及	-254
te	-255
环境	-256
过程	-257
之前	-258
整个	-259
只有	-260
项目	-261
性的	-262
产生	-263
政府	-264
照片	-265
感觉	-266
变得	-267
年前	-268
细胞	-269
就会	-270
原因	-271
不知道	-272
▁的	-273
拥有	-274
想象	-275
来自	-276
方面	-277
10	-278
想要	-279
?”	-280
▁--	-281
于是	-282
地球	-283
艺术	-284
全球	-285
下来	-286
之间	-287
an	-288
的话	-289
▁你可以	-290
出来	-291
自然	-292
之一	-293
▁或	-294
无法	-295
一点	-296
朋友	-297
理解	-298
例子	-299
网络	-300
能力	-301
我在	-302
找到	-303
▁谢谢	-304
变化	-305
展示	-306
教育	-307
提供	-308
那么	-309
▁可以	-310
▁去	-311
里的	-312
变成	-313
学习	-314
运动	-315
建筑	-316
▁好	-317
它的	-318
▁比如	-319
▁于是	-320
是什么	-321
▁用	-322
▁人们	-323
▁当然	-324
200	-325
行为	-326
对于	-327
并不	-328
非洲	-329
是个	-330
学生	-331
成功	-332
关系	-333
计算	-334
▁事实上	-335
▁把	-336
音乐	-337
基本	-338
有一	-339
▁我们的	-340
学家	-341
意思	-342
▁要	-343
基因	-344
如果你	-345
▁这种	-346
▁这样	-347
的方式	-348
思考	-349
电脑	-350
美元	-351
学校	-352
是一	-353
▁那些	-354
科技	-355
出现	-356
声音	-357
▁会	-358
经历	-359
安全	-360
▁将	-361
历史	-362
er	-363
▁就像	-364
空间	-365
让我	-366
意义	-367
控制	-368
意味	-369
身体	-370
50	-371
女性	-372
利用	-373
机会	-374
演讲	-375
▁没有	-376
有趣	-377
怎样	-378
ar	-379
的一个	-380
件事	-381
就像	-382
另一个	-383
的时间	-384
未来	-385
以及	-386
建立	-387
印度	-388
各种	-389
▁很	-390
▁与	-391
世纪	-392
令人	-393
特别	-394
意味着	-395
我们可以	-396
复杂	-397
所有的	-398
健康	-399
其实	-400
完成	-401
最后	-402
其中	-403
是否	-404
在一起	-405
▁(	-406
制造	-407
让我们	-408
确实	-409
▁这里	-410
尝试	-411
in	-412
▁♫	-413
保护	-414
宇宙	-415
游戏	-416
▁我们可以	-417
感到	-418
多少	-419
做了	-420
▁所有	-421
主义	-422
文化	-423
有些	-424
说的	-425
医生	-426
当时	-427
▁我认为	-428
重要的	-429
把它	-430
合作	-431
神经	-432
参与	-433
年的	-434
▁正	-435
活动	-436
语言	-437
进入	-438
意识到	-439
我们在	-440
▁所以我	-441
地区	-442
多数	-443
几个	-444
食物	-445
▁即	-446
目标	-447
获得	-448
计划	-449
继续	-450
中国	-451
注意	-452
你可以	-453
也许	-454
中心	-455
▁为什么	-456
小时	-457
政治	-458
另一	-459
▁通过	-460
将会	-461
第一	-462
另外	-463
所以	-464
模式	-465
▁不过	-466
世界上	-467
接受	-468
才能	-469
市场	-470
大学	-471
联系	-472
更加	-473
▁只	-474
有人	-475
看起来	-476
▁这是一个	-477
作用	-478
治疗	-479
解释	-480
疾病	-481
叫做	-482
▁而是	-483
▁到	-484
然而	-485
小的	-486
家庭	-487
▁我在	-488
努力	-489
工具	-490
价值	-491
几乎	-492
▁但我	-493
年轻	-494
重新	-495
量的	-496
▁同时	-497
000	-498
三个	-499
首先	-500
on	-501
领域	-502
实现	-503
电影	-504
▁如果我们	-505
ted	-506
生产	-507
机器人	-508
是我们	-509
回到	-510
▁然而	-511
出了	-512
十分	-513
死亡	-514
▁所以我们	-515
▁非常	-516
我要	-517
▁接	-518
看到的	-519
”。	-520
年代	-521
同样	-522
并不是	-523
里面	-524
关注	-525
反应	-526
社区	-527
数字	-528
答案	-529
包括	-530
讨论	-531
就可以	-532
曾经	-533
观察	-534
▁再	-535
作品	-536
就能	-537
30	-538
处理	-539
▁被	-540
产品	-541
▁对于	-542
都有	-543
都会	-544
太阳	-545
持续	-546
孩子们	-547
▁更	-548
更多的	-549
感谢	-550
分享	-551
▁你会	-552
现实	-553
一定	-554
过的	-555
她的	-556
▁还	-557
分钟	-558
挑战	-559
相当	-560
自由	-561
▁也许	-562
区域	-563
▁最后	-564
容易	-565
百万	-566
是我	-567
有点	-568
▁当我	-569
▁实际上	-570
结构	-571
准备	-572
不可	-573
有了	-574
汽车	-575
出的	-576
认识	-577
▁无	-578
▁能	-579
成的	-580
▁为	-581
超过	-582
▁甚至	-583
服务	-584
在这	-585
制作	-586
某种	-587
资源	-588
在这里	-589
na	-590
观众	-591
....	-592
▁像	-593
行动	-594
显示	-595
力量	-596
色的	-597
le	-598
主要	-599
15	-600
视频	-601
代表	-602
兴趣	-603
▁可	-604
的故事	-605
战争	-606
▁当你	-607
模型	-608
▁让我们	-609
根本	-610
的大	-611
带来	-612
总是	-613
程度	-614
唯一	-615
我说	-616
直到	-617
巨大的	-618
分子	-619
支持	-620
发生了	-621
去了	-622
增长	-623
明白	-624
那样	-625
的方法	-626
这个问题	-627
可能会	-628
▁s	-629
当然	-630
越来	-631
▁c	-632
类似	-633
寻找	-634
理论	-635
▁看	-636
不到	-637
精神	-638
越来越	-639
比较	-640
真实	-641
▁也就是	-642
病毒	-643
海洋	-644
考虑	-645
发明	-646
基础	-647
知识	-648
第二	-649
科学家	-650
都在	-651
目前	-652
成了	-653
观点	-654
多的	-655
▁我们在	-656
力的	-657
化的	-658
虽然	-659
工程	-660
是因为	-661
办法	-662
女孩	-663
通常	-664
电话	-665
上面	-666
不断	-667
每个	-668
机构	-669
▁使	-670
纽约	-671
的人们	-672
的小	-673
一个人	-674
的工作	-675
尽管	-676
▁关于	-677
以前	-678
结束	-679
但是	-680
听到	-681
同样的	-682
她们	-683
投资	-684
▁其实	-685
▁我们需要	-686
有关	-687
很多人	-688
▁b	-689
病人	-690
在一个	-691
每个人	-692
传统	-693
概念	-694
身上	-695
做出	-696
哪里	-697
母亲	-698
自我	-699
计算机	-700
”,	-701
材料	-702
离开	-703
记录	-704
一切	-705
▁如	-706
清楚	-707
最终	-708
能源	-709
并且	-710
有的	-711
▁说	-712
第一个	-713
▁那就是	-714
测试	-715
做到	-716
第一次	-717
一位	-718
大概	-719
愿意	-720
百分	-721
▁其中	-722
手机	-723
用的	-724
媒体	-725
英国	-726
角度	-727
仅仅是	-728
▁给	-729
100	-730
医疗	-731
记得	-732
实验室	-733
速度	-734
▁不是	-735
▁作为	-736
就在	-737
也不	-738
物质	-739
受到	-740
▁当我们	-741
得不	-742
仍然	-743
别人	-744
关键	-745
领导	-746
充满	-747
世界的	-748
移动	-749
错误	-750
▁今天	-751
▁他说	-752
谈论	-753
定的	-754
当你	-755
等等	-756
名字	-757
有个	-758
飞行	-759
or	-760
▁大家	-761
回答	-762
这就是	-763
你会	-764
▁为了	-765
试图	-766
▁由	-767
一天	-768
图片	-769
大约	-770
导致	-771
证明	-772
后来	-773
有效	-774
正确	-775
有很多	-776
男人	-777
▁m	-778
数学	-779
电视	-780
每天	-781
在这个	-782
应用	-783
女人	-784
相关	-785
父母	-786
管理	-787
而言	-788
设备	-789
面对	-790
保持	-791
大多数	-792
人口	-793
植物	-794
的世界	-795
足够	-796
并没有	-797
连接	-798
en	-799
电子	-800
▁因为我	-801
▁"	-802
父亲	-803
不可能	-804
ri	-805
一样的	-806
增加	-807
直接	-808
看见	-809
至少	-810
下的	-811
很好	-812
是如何	-813
12	-814
也会	-815
做什么	-816
我们所	-817
内容	-818
民主	-819
利亚	-820
探索	-821
物种	-822
简单的	-823
你知道	-824
交流	-825
例如	-826
共同	-827
气候	-828
老师	-829
建造	-830
放在	-831
al	-832
想到	-833
儿童	-834
达到	-835
而且	-836
具有	-837
真正的	-838
▁我不	-839
▁首先	-840
十年	-841
用来	-842
▁我说	-843
了我	-844
在我	-845
物理	-846
现象	-847
18	-848
互联	-849
药物	-850
创新	-851
随着	-852
方向	-853
范围	-854
时代	-855
也有	-856
减少	-857
让人	-858
更好	-859
本身	-860
网站	-861
癌症	-862
▁第二	-863
。“	-864
功能	-865
▁而不是	-866
的情况	-867
▁d	-868
能量	-869
40	-870
给你们	-871
明显	-872
看着	-873
表现	-874
上去	-875
企业	-876
到底	-877
团队	-878
▁我要	-879
我认为	-880
给我	-881
的一部分	-882
最大的	-883
形式	-884
我不	-885
某些	-886
▁我是	-887
是一种	-888
刚刚	-889
之间的	-890
了这个	-891
▁因为我们	-892
样子	-893
ch	-894
者的	-895
▁当时	-896
体的	-897
告诉你	-898
危险	-899
我是	-900
突然	-901
▁一些	-902
的原因	-903
分析	-904
欧洲	-905
永远	-906
我会	-907
基本上	-908
斯坦	-909
一张	-910
一步	-911
开发	-912
很难	-913
飞机	-914
▁我觉得	-915
我就	-916
进化	-917
60	-918
人员	-919
其它	-920
面的	-921
会有	-922
商业	-923
公共	-924
坐在	-925
很有	-926
数量	-927
经常	-928
规模	-929
▁已经	-930
互联网	-931
▁想	-932
周围	-933
▁让我	-934
困难	-935
来看	-936
▁你的	-937
心理	-938
▁有些	-939
▁但我们	-940
以后	-941
地图	-942
▁尽管	-943
百分之	-944
▁我会	-945
不要	-946
位置	-947
难以	-948
相同	-949
预测	-950
人都	-951
型的	-952
▁你知道	-953
表达	-954
▁虽然	-955
个月	-956
▁即使	-957
告诉我	-958
▁除	-959
地的	-960
如果我们	-961
11	-962
不再	-963
消息	-964
▁下	-965
严重	-966
方案	-967
手术	-968
尼亚	-969
过来	-970
让你	-971
调查	-972
ra	-973
加入	-974
程序	-975
el	-976
有着	-977
其他的	-978
上帝	-979
给你	-980
▁美国	-981
快乐	-982
梦想	-983
...	-984
根据	-985
收入	-986
大部分	-987
最好的	-988
各位	-989
▁可能	-990
▁能够	-991
也可以	-992
来到	-993
更好的	-994
要求	-995
眼睛	-996
全世界	-997
th	-998
▁在我	-999
对我	-1000
拍摄	-1001
在于	-1002
行的	-1003
当我	-1004
担心	-1005
▁它是	-1006
▁请	-1007
事物	-1008
传播	-1009
国际	-1010
▁他们的	-1011
▁那是	-1012
▁却	-1013
确定	-1014
肯定	-1015
发生在	-1016
▁直到	-1017
状态	-1018
石油	-1019
妈妈	-1020
体验	-1021
只能	-1022
它是	-1023
形成	-1024
现代	-1025
过程中	-1026
这一点	-1027
称为	-1028
经过	-1029
道德	-1030
那种	-1031
▁-	-1032
定义	-1033
住在	-1034
医院	-1035
提高	-1036
法律	-1037
软件	-1038
它们的	-1039
问题是	-1040
面临	-1041
人类的	-1042
参加	-1043
▁结果	-1044
国家的	-1045
过去的	-1046
我们需要	-1047
子的	-1048
系列	-1049
▁还是	-1050
一年	-1051
任务	-1052
你在	-1053
信号	-1054
宗教	-1055
有什么	-1056
出来的	-1057
25	-1058
似乎	-1059
▁都是	-1060
▁”	-1061
化学	-1062
描述	-1063
相互	-1064
暴力	-1065
正常	-1066
生活在	-1067
平均	-1068
思想	-1069
比如	-1070
生的	-1071
▁我知道	-1072
最近	-1073
试着	-1074
长的	-1075
从来	-1076
其他人	-1077
一段	-1078
子里	-1079
▁只有	-1080
事件	-1081
目的	-1082
▁在这个	-1083
多么	-1084
好像	-1085
▁例如	-1086
▁—	-1087
发现了	-1088
感兴趣	-1089
尤其	-1090
幸福	-1091
生存	-1092
感受	-1093
是很	-1094
风险	-1095
发生的	-1096
▁p	-1097
一条	-1098
阶段	-1099
▁♪	-1100
奇怪	-1101
收集	-1102
带着	-1103
▁无论	-1104
值得	-1105
行星	-1106
不需要	-1107
了我们	-1108
全部	-1109
和我	-1110
很快	-1111
聪明	-1112
的孩子	-1113
▁我希望	-1114
标准	-1115
dna	-1116
我们要	-1117
完美	-1118
里斯	-1119
你能	-1120
新闻	-1121
▁但是我	-1122
我们有	-1123
本书	-1124
房间	-1125
效果	-1126
森林	-1127
说过	-1128
生态	-1129
训练	-1130
▁做	-1131
试验	-1132
普通	-1133
这张	-1134
革命	-1135
美丽	-1136
意思是	-1137
看到了	-1138
▁j	-1139
兴奋	-1140
后的	-1141
因素	-1142
▁一种	-1143
80	-1144
it	-1145
失败	-1146
水平	-1147
▁人	-1148
不仅	-1149
专家	-1150
打开	-1151
经验	-1152
表演	-1153
我们能	-1154
am	-1155
▁但这	-1156
oo	-1157
用于	-1158
在那	-1159
以为	-1160
不过	-1161
自身	-1162
得到了	-1163
问题的	-1164
▁又	-1165
一只	-1166
妇女	-1167
恐怖	-1168
是有	-1169
re	-1170
回来	-1171
▁假	-1172
好了	-1173
吸引	-1174
恐惧	-1175
每一个	-1176
▁g	-1177
图像	-1178
政策	-1179
绝对	-1180
我们就	-1181
的研究	-1182
我所	-1183
▁接着	-1184
了很多	-1185
会议	-1186
记忆	-1187
是的	-1188
英尺	-1189
视觉	-1190
▁我们有	-1191
糟糕	-1192
▁我们要	-1193
星期	-1194
需求	-1195
告诉我们	-1196
当我们	-1197
重要的是	-1198
▁只是	-1199
高的	-1200
▁如何	-1201
ro	-1202
不起	-1203
消失	-1204
这是一个	-1205
下去	-1206
开放	-1207
运作	-1208
介绍	-1209
句话	-1210
显然	-1211
▁很多	-1212
危机	-1213
两种	-1214
都不	-1215
的一切	-1216
心的	-1217
的最	-1218
很重要	-1219
上了	-1220
允许	-1221
表明	-1222
这项	-1223
鼓掌	-1224
是怎么	-1225
以来	-1226
星球	-1227
伟大的	-1228
,”	-1229
结合	-1230
▁我们必须	-1231
某个	-1232
神奇	-1233
责任	-1234
▁另外	-1235
▁它的	-1236
不错	-1237
基于	-1238
▁我也	-1239
▁他的	-1240
的数据	-1241
▁我可以	-1242
中间	-1243
改变了	-1244
一名	-1245
空气	-1246
说明	-1247
▁她们	-1248
▁看看	-1249
时的	-1250
▁那个	-1251
成本	-1252
▁这就	-1253
不多	-1254
细菌	-1255
距离	-1256
90	-1257
as	-1258
进步	-1259
▁开始	-1260
70	-1261
到达	-1262
或许	-1263
复杂的	-1264
男孩	-1265
边的	-1266
▁我们也	-1267
ic	-1268
会说	-1269
运用	-1270
▁不管	-1271
都知道	-1272
平等	-1273
心脏	-1274
几年	-1275
权利	-1276
联合	-1277
一件	-1278
动作	-1279
接触	-1280
▁但是我们	-1281
土地	-1282
正是	-1283
可能是	-1284
创作	-1285
医学	-1286
之为	-1287
真是	-1288
这样做	-1289
先生	-1290
类的	-1291
英里	-1292
在那里	-1293
艺术家	-1294
感染	-1295
规则	-1296
消费	-1297
些什么	-1298
一般	-1299
▁或是	-1300
▁克	-1301
▁19	-1302
▁最终	-1303
称之为	-1304
动的	-1305
工业	-1306
▁人类	-1307
有一些	-1308
压力	-1309
▁我们会	-1310
il	-1311
去做	-1312
婴儿	-1313
有多	-1314
监狱	-1315
还没有	-1316
办公	-1317
女士	-1318
幸运	-1319
投入	-1320
智慧	-1321
给大家	-1322
给我们	-1323
不用	-1324
种族	-1325
不得不	-1326
的信息	-1327
花费	-1328
▁正如	-1329
这么做	-1330
is	-1331
▁相	-1332
提出	-1333
状况	-1334
西方	-1335
的生活	-1336
体系	-1337
转变	-1338
银行	-1339
▁只要	-1340
在我们	-1341
处于	-1342
▁没	-1343
的想法	-1344
▁这是个	-1345
▁我们现在	-1346
表面	-1347
很好的	-1348
▁因为他们	-1349
建议	-1350
条件	-1351
取得	-1352
艾滋	-1353
装置	-1354
工作的	-1355
之中	-1356
或是	-1357
特殊	-1358
威胁	-1359
形状	-1360
一直在	-1361
没有人	-1362
es	-1363
公民	-1364
当地	-1365
彼此	-1366
▁跟	-1367
同事	-1368
▁我们能	-1369
男性	-1370
还在	-1371
都能	-1372
未来的	-1373
让他们	-1374
告诉你们	-1375
at	-1376
对吧	-1377
角色	-1378
设计的	-1379
情绪	-1380
这一切	-1381
......	-1382
动力	-1383
▁你能	-1384
我可以	-1385
表示	-1386
降低	-1387
了一些	-1388
的国家	-1389
▁自	-1390
期的	-1391
每年	-1392
还要	-1393
世界各	-1394
生命的	-1395
▁然后我们	-1396
大量的	-1397
我也	-1398
痛苦	-1399
那时	-1400
所有人	-1401
▁t	-1402
专业	-1403
患者	-1404
▁之后	-1405
▁那时	-1406
找到了	-1407
从未	-1408
你所	-1409
总统	-1410
▁我们就	-1411
把它们	-1412
▁1	-1413
交通	-1414
晚上	-1415
见的	-1416
▁好吧	-1417
思维	-1418
▁后来	-1419
ac	-1420
ou	-1421
学会	-1422
很大	-1423
房子	-1424
高兴	-1425
▁非常感谢	-1426
不想	-1427
出去	-1428
刚才	-1429
小孩	-1430
是最	-1431
▁来自	-1432
的照片	-1433
内部	-1434
的那	-1435
▁我就	-1436
情况下	-1437
塑料	-1438
避免	-1439
▁这是我	-1440
站在	-1441
很大的	-1442
属于	-1443
▁包括	-1444
可以看到	-1445
害怕	-1446
质量	-1447
ip	-1448
名的	-1449
这件事	-1450
别的	-1451
大量	-1452
蛋白	-1453
其中的	-1454
这些人	-1455
使得	-1456
冲突	-1457
颜色	-1458
是非常	-1459
的影响	-1460
的能力	-1461
回家	-1462
讲述	-1463
想象一下	-1464
对话	-1465
差不多	-1466
是不	-1467
独立	-1468
积极	-1469
他人	-1470
和平	-1471
▁然后我	-1472
你要	-1473
资金	-1474
出生	-1475
所在	-1476
知的	-1477
竞争	-1478
▁k	-1479
学的	-1480
屏幕	-1481
当中	-1482
爱的	-1483
相似	-1484
年轻人	-1485
我觉得	-1486
设计师	-1487
保证	-1488
博物	-1489
▁在这	-1490
我能	-1491
对此	-1492
文章	-1493
疯狂	-1494
组成	-1495
下来的	-1496
互相	-1497
关心	-1498
基金	-1499
▁这一	-1500
博物馆	-1501
地球上	-1502
▁h	-1503
快速	-1504
测量	-1505
绿色	-1506
阅读	-1507
▁需要	-1508
得到的	-1509
有可能	-1510
二十	-1511
价格	-1512
▁或许	-1513
只要	-1514
四个	-1515
适应	-1516
▁任何	-1517
停止	-1518
可怕	-1519
毫无	-1520
▁上	-1521
太空	-1522
职业	-1523
外的	-1524
家伙	-1525
花了	-1526
限制	-1527
他们在	-1528
▁两	-1529
操作	-1530
变成了	-1531
把这些	-1532
美国人	-1533
▁总	-1534
不在	-1535
▁这样的	-1536
警察	-1537
有趣的	-1538
▁我们已经	-1539
广告	-1540
程度上	-1541
杂志	-1542
阿拉	-1543
▁尤其	-1544
什么是	-1545
设施	-1546
证据	-1547
▁我很	-1548
▁而这	-1549
他说	-1550
信仰	-1551
下降	-1552
集中	-1553
分之一	-1554
发表	-1555
失去	-1556
度的	-1557
逐渐	-1558
儿子	-1559
哪些	-1560
负责	-1561
造成	-1562
那是	-1563
你们的	-1564
而不是	-1565
▁多	-1566
巨大	-1567
引起	-1568
火星	-1569
的主	-1570
过了	-1571
邀请	-1572
阻止	-1573
神经元	-1574
珊瑚	-1575
的结果	-1576
时刻	-1577
行业	-1578
▁有人	-1579
▁第一	-1580
也没有	-1581
▁我们还	-1582
本质	-1583
看来	-1584
太多	-1585
模拟	-1586
武器	-1587
理由	-1588
破坏	-1589
背景	-1590
利益	-1591
很棒	-1592
▁我们将	-1593
▁现在我们	-1594
年龄	-1595
漂亮	-1596
▁如今	-1597
给他们	-1598
▁w	-1599
成长	-1600
教授	-1601
课程	-1602
▁每个	-1603
都可以	-1604
呼吸	-1605
用了	-1606
的确	-1607
办公室	-1608
生活中	-1609
你就	-1610
是由	-1611
▁特别	-1612
▁那里	-1613
生长	-1614
财富	-1615
▁接下来	-1616
▁l	-1617
▁此	-1618
同情	-1619
接近	-1620
带来的	-1621
注意到	-1622
▁他们会	-1623
千万	-1624
垃圾	-1625
老鼠	-1626
并非	-1627
情感	-1628
统计	-1629
听起来	-1630
都没有	-1631
实在	-1632
社交	-1633
我们会	-1634
一场	-1635
怎么样	-1636
的声音	-1637
惊讶	-1638
放到	-1639
物体	-1640
年里	-1641
拯救	-1642
这样一个	-1643
▁f	-1644
▁几	-1645
习惯	-1646
结论	-1647
部门	-1648
▁从而	-1649
正确的	-1650
▁比如说	-1651
有多少	-1652
之处	-1653
差异	-1654
成员	-1655
搜索	-1656
的新	-1657
假设	-1658
恢复	-1659
比亚	-1660
面前	-1661
是不是	-1662
生活的	-1663
▁这不是	-1664
互动	-1665
疫苗	-1666
▁——	-1667
的事物	-1668
▁如果我	-1669
▁我们知道	-1670
仔细	-1671
ter	-1672
工程师	-1673
us	-1674
卫生	-1675
所谓	-1676
智能	-1677
犯罪	-1678
马上	-1679
对我们	-1680
常常	-1681
思议	-1682
文字	-1683
爆炸	-1684
鼓励	-1685
▁a	-1686
时期	-1687
亿美元	-1688
平衡	-1689
才是	-1690
蚂蚁	-1691
可以在	-1692
的例子	-1693
▁我相信	-1694
▁而我	-1695
我们现在	-1696
放弃	-1697
▁大约	-1698
一项	-1699
特的	-1700
▁是的	-1701
岁的	-1702
英语	-1703
身份	-1704
公开	-1705
家人	-1706
报道	-1707
遇到	-1708
▁这也是	-1709
即使	-1710
改善	-1711
日本	-1712
记住	-1713
可能性	-1714
没有任何	-1715
ol	-1716
一代	-1717
是从	-1718
温度	-1719
家里	-1720
来了	-1721
氧化	-1722
那儿	-1723
存在的	-1724
成功的	-1725
所做的	-1726
▁因为它	-1727
旅行	-1728
来源	-1729
群体	-1730
太阳能	-1731
我来说	-1732
依赖	-1733
卫星	-1734
循环	-1735
燃料	-1736
诊断	-1737
把这个	-1738
摄影	-1739
文明	-1740
理念	-1741
▁加	-1742
不了	-1743
公园	-1744
想想	-1745
针对	-1746
▁正在	-1747
原始	-1748
好吧	-1749
建设	-1750
承认	-1751
排放	-1752
星系	-1753
演奏	-1754
▁目前	-1755
▁我开始	-1756
!”	-1757
必要	-1758
成果	-1759
打算	-1760
资本	-1761
艾滋病	-1762
做的事情	-1763
我们已经	-1764
了这	-1765
同意	-1766
多样	-1767
产生的	-1768
▁200	-1769
发生了什么	-1770
免费	-1771
再次	-1772
女儿	-1773
学院	-1774
的环境	-1775
将要	-1776
熟悉	-1777
终于	-1778
谷歌	-1779
在美国	-1780
▁另一个	-1781
享受	-1782
网上	-1783
而是	-1784
贫困	-1785
驾驶	-1786
我们对	-1787
▁我不知道	-1788
人民	-1789
运行	-1790
500	-1791
▁同样	-1792
▁大概	-1793
富汗	-1794
猩猩	-1795
认知	-1796
食品	-1797
的力量	-1798
阿富汗	-1799
▁2	-1800
体内	-1801
拉克	-1802
谈谈	-1803
长大	-1804
▁20	-1805
▁好的	-1806
▁许多	-1807
成为了	-1808
下面	-1809
包含	-1810
培养	-1811
说话	-1812
贫穷	-1813
都很	-1814
交易	-1815
像是	-1816
原则	-1817
发出	-1818
年后	-1819
报告	-1820
检测	-1821
见过	-1822
我知道	-1823
%。	-1824
ed	-1825
▁向	-1826
会在	-1827
信任	-1828
观念	-1829
也就是	-1830
人们的	-1831
▁小	-1832
上升	-1833
巴西	-1834
污染	-1835
重复	-1836
▁完全	-1837
▁整个	-1838
来自于	-1839
真实的	-1840
▁你可以看到	-1841
各个	-1842
式的	-1843
▁我还	-1844
之外	-1845
你是	-1846
博士	-1847
安德	-1848
确保	-1849
障碍	-1850
▁这张	-1851
比赛	-1852
路上	-1853
采取	-1854
▁这意味着	-1855
ad	-1856
om	-1857
左右	-1858
节目	-1859
看上去	-1860
▁而我们	-1861
一家	-1862
创建	-1863
扫描	-1864
看待	-1865
看法	-1866
面包	-1867
▁就在	-1868
的社会	-1869
气候变化	-1870
▁3	-1871
找出	-1872
究竟	-1873
置信	-1874
et	-1875
咖啡	-1876
坚持	-1877
对的	-1878
之所以	-1879
不可思议	-1880
这个世界	-1881
不管	-1882
位于	-1883
做得	-1884
好处	-1885
电池	-1886
帮助我们	-1887
14	-1888
16	-1889
年来	-1890
了这些	-1891
一块	-1892
器官	-1893
消耗	-1894
理想	-1895
的过程	-1896
核心	-1897
▁世界	-1898
作为一个	-1899
今年	-1900
元素	-1901
农业	-1902
肿瘤	-1903
▁进行	-1904
▁第一个	-1905
▁谁	-1906
工厂	-1907
▁于是我	-1908
是这样的	-1909
至于	-1910
走进	-1911
部的	-1912
▁但在	-1913
下一个	-1914
的技术	-1915
▁他们在	-1916
创意	-1917
复制	-1918
第三	-1919
出现在	-1920
发展中	-1921
▁马	-1922
这儿	-1923
会发生	-1924
的感觉	-1925
无论	-1926
笑声	-1927
超级	-1928
喜欢的	-1929
▁是一个	-1930
我们必须	-1931
上万	-1932
妻子	-1933
满足	-1934
而已	-1935
不仅仅是	-1936
▁谢谢大家	-1937
▁三	-1938
往往	-1939
成就	-1940
援助	-1941
居住	-1942
漫画	-1943
细节	-1944
▁反	-1945
昆虫	-1946
比例	-1947
存在于	-1948
难以置信	-1949
克斯	-1950
变革	-1951
得以	-1952
性恋	-1953
打印	-1954
早上	-1955
附近	-1956
▁也是	-1957
那样的	-1958
▁每个人	-1959
贡献	-1960
身边	-1961
and	-1962
▁几乎	-1963
▁我对	-1964
相同的	-1965
▁我们发现	-1966
id	-1967
层面	-1968
▁是因为	-1969
这些东西	-1970
成千	-1971
权力	-1972
沟通	-1973
英雄	-1974
▁在我们	-1975
区别	-1976
罗斯	-1977
▁我和	-1978
了我的	-1979
使用的	-1980
▁我现在	-1981
▁全	-1982
会被	-1983
皮肤	-1984
美好	-1985
另一种	-1986
进一步	-1987
阿拉伯	-1988
也能	-1989
伦敦	-1990
原子	-1991
展现	-1992
德国	-1993
约翰	-1994
获取	-1995
微生物	-1996
,"	-1997
自动	-1998
话题	-1999
资料	-2000
做的是	-2001
一半	-2002
对待	-2003
我很	-2004
有所	-2005
深入	-2006
追求	-2007
什么呢	-2008
也在	-2009
准确	-2010
自行	-2011
让它	-2012
可持续	-2013
怎么做	-2014
接下来	-2015
联合国	-2016
▁嗯	-2017
人在	-2018
十亿	-2019
恐龙	-2020
的水	-2021
除了	-2022
依然	-2023
密码	-2024
平台	-2025
攻击	-2026
记者	-2027
邮件	-2028
▁你就	-2029
▁研究	-2030
几个月	-2031
看到的是	-2032
伤害	-2033
在座	-2034
摄像	-2035
由于	-2036
美金	-2037
▁不要	-2038
▁她说	-2039
▁我将	-2040
蛋白质	-2041
▁有一个	-2042
成为一个	-2043
im	-2044
制度	-2045
得多	-2046
提到	-2047
相反	-2048
的一些	-2049
范围内	-2050
▁所有的	-2051
慢慢	-2052
斯特	-2053
普遍	-2054
用户	-2055
秘密	-2056
▁有时	-2057
▁通常	-2058
▁高	-2059
检查	-2060
迅速	-2061
足够的	-2062
妙的	-2063
完整	-2064
激励	-2065
现场	-2066
购买	-2067
▁希望	-2068
一部分	-2069
强大的	-2070
灭绝	-2071
二氧化	-2072
变得更	-2073
和其他	-2074
这个词	-2075
▁也就是说	-2076
人生	-2077
很长	-2078
早期	-2079
的高	-2080
给予	-2081
这次	-2082
这类	-2083
途径	-2084
一个小	-2085
▁随	-2086
不够	-2087
员工	-2088
彻底	-2089
态度	-2090
毕业	-2091
特征	-2092
基因组	-2093
我们是	-2094
说的是	-2095
▁海	-2096
兄弟	-2097
如今	-2098
日常	-2099
法国	-2100
灾难	-2101
问我	-2102
怎样的	-2103
方面的	-2104
所有这些	-2105
收到	-2106
机制	-2107
翻译	-2108
蜜蜂	-2109
见到	-2110
释放	-2111
▁由于	-2112
出现了	-2113
我想要	-2114
的设计	-2115
▁我们都	-2116
▁这是我们	-2117
17	-2118
▁举	-2119
原理	-2120
广泛	-2121
流行	-2122
爸爸	-2123
说法	-2124
▁你要	-2125
▁除了	-2126
▁或者是	-2127
下了	-2128
后面	-2129
我对	-2130
▁使用	-2131
▁创造	-2132
需要的	-2133
2000	-2134
▁新	-2135
旅程	-2136
趋势	-2137
进去	-2138
错了	-2139
▁一旦	-2140
▁假如	-2141
的地	-2142
▁我从	-2143
▁每天	-2144
▁并不是	-2145
13	-2146
个体	-2147
技能	-2148
金融	-2149
▁全球	-2150
▁它会	-2151
有意思	-2152
▁基本上	-2153
成千上万	-2154
墨西	-2155
穿过	-2156
墨西哥	-2157
这是个	-2158
中有	-2159
博客	-2160
图书	-2161
州的	-2162
提醒	-2163
蓝色	-2164
虚拟	-2165
不仅仅	-2166
很容易	-2167
丰富	-2168
公众	-2169
分布	-2170
利的	-2171
我有	-2172
公司的	-2173
二氧化碳	-2174
他在	-2175
内心	-2176
案例	-2177
看不	-2178
现在的	-2179
为止	-2180
怀疑	-2181
掌握	-2182
浪费	-2183
组合	-2184
辩论	-2185
的发展	-2186
os	-2187
这条	-2188
▁可是	-2189
历史上	-2190
▁他们说	-2191
▁有时候	-2192
另外一个	-2193
▁换	-2194
写的	-2195
刺激	-2196
机械	-2197
欢迎	-2198
真的是	-2199
强烈	-2200
▁什么	-2201
他们会	-2202
生物学	-2203
5%	-2204
一群	-2205
伊斯	-2206
启发	-2207
执行	-2208
极端	-2209
相对	-2210
相机	-2211
缺乏	-2212
衣服	-2213
▁他是	-2214
▁看到	-2215
▁至少	-2216
的人口	-2217
性别	-2218
能在	-2219
▁另一	-2220
主义者	-2221
不太	-2222
优秀	-2223
取决	-2224
期间	-2225
等待	-2226
简直	-2227
重点	-2228
199	-2229
世界各地	-2230
岁的时候	-2231
应对	-2232
开心	-2233
播放	-2234
给了	-2235
选举	-2236
难民	-2237
▁中国	-2238
▁我有	-2239
个小时	-2240
孩子的	-2241
的人生	-2242
▁克里斯	-2243
▁我的意思是	-2244
反对	-2245
拒绝	-2246
期待	-2247
激动	-2248
还能	-2249
来看看	-2250
解决方案	-2251
ub	-2252
一旦	-2253
在你	-2254
热情	-2255
聚集	-2256
走了	-2257
适合	-2258
▁不仅	-2259
▁不同	-2260
▁但它	-2261
▁在这里	-2262
从来没有	-2263
非常重要	-2264
名为	-2265
恒星	-2266
改革	-2267
来做	-2268
没人	-2269
舞台	-2270
输入	-2271
黑人	-2272
伊拉克	-2273
的时刻	-2274
认识到	-2275
▁我们对	-2276
发挥	-2277
玩具	-2278
者们	-2279
部落	-2280
ris	-2281
各种各	-2282
▁他们是	-2283
军队	-2284
判断	-2285
我将	-2286
按照	-2287
最好	-2288
望远	-2289
血管	-2290
走到	-2291
做的事	-2292
系统的	-2293
▁大多数	-2294
这个项目	-2295
合理	-2296
团体	-2297
地说	-2298
道路	-2299
黑暗	-2300
▁他在	-2301
伊斯兰	-2302
出一个	-2303
大脑的	-2304
想知道	-2305
eb	-2306
从事	-2307
传递	-2308
红色	-2309
▁你看	-2310
我们都	-2311
是这样	-2312
望远镜	-2313
伊朗	-2314
很少	-2315
苹果	-2316
面积	-2317
取决于	-2318
我自己	-2319
的机会	-2320
第二个	-2321
▁我发现	-2322
做过	-2323
去年	-2324
合适	-2325
学到	-2326
维持	-2327
进来	-2328
麻烦	-2329
▁就会	-2330
一些人	-2331
同性恋	-2332
ha	-2333
便宜	-2334
寿命	-2335
脆弱	-2336
走向	-2337
▁社会	-2338
相当于	-2339
我们应该	-2340
万人	-2341
手段	-2342
报纸	-2343
涉及	-2344
▁好了	-2345
一系列	-2346
感觉到	-2347
所谓的	-2348
有一天	-2349
错误的	-2350
出版	-2351
把这	-2352
版本	-2353
玻璃	-2354
粒子	-2355
采用	-2356
▁ca	-2357
▁才能	-2358
▁第三	-2359
产生了	-2360
使我们	-2361
做一个	-2362
我开始	-2363
有些人	-2364
美国的	-2365
?“	-2366
▁n	-2367
呈现	-2368
就有	-2369
画面	-2370
遗传	-2371
也不会	-2372
这不是	-2373
▁尤其是	-2374
世界上最	-2375
每个人都	-2376
。"	-2377
从中	-2378
做法	-2379
大众	-2380
期望	-2381
每次	-2382
色列	-2383
间的	-2384
在哪里	-2385
失去了	-2386
这么多	-2387
▁我当时	-2388
▁于是我们	-2389
▁这就是为什么	-2390
▁天	-2391
供应	-2392
哪个	-2393
回事	-2394
大气	-2395
幻灯	-2396
旁边	-2397
极其	-2398
海岸	-2399
▁她的	-2400
▁根据	-2401
发展的	-2402
我已经	-2403
没什么	-2404
的情况下	-2405
24	-2406
▁年	-2407
具体	-2408
到处	-2409
士兵	-2410
居民	-2411
渴望	-2412
相比	-2413
顺便	-2414
慈善	-2415
沙漠	-2416
超越	-2417
1000	-2418
一片	-2419
不好	-2420
将来	-2421
我和	-2422
斯林	-2423
潜水	-2424
物品	-2425
袭击	-2426
他们是	-2427
对我来说	-2428
曲线	-2429
气体	-2430
混合	-2431
今天的	-2432
件事情	-2433
同一个	-2434
的时代	-2435
真的很	-2436
穆斯林	-2437
伟大	-2438
强大	-2439
接着	-2440
无线	-2441
有时	-2442
▁一直	-2443
只需要	-2444
可能的	-2445
那就是	-2446
丈夫	-2447
你想	-2448
探测	-2449
症状	-2450
隐藏	-2451
我们不	-2452
▁在一个	-2453
▁我喜欢	-2454
▁才	-2455
一份	-2456
了吗	-2457
长期	-2458
把他们	-2459
的学生	-2460
一个问题	-2461
这些问题	-2462
农民	-2463
则是	-2464
同一	-2465
标志	-2466
电力	-2467
评论	-2468
闭症	-2469
▁仅仅	-2470
的速度	-2471
▁我们不	-2472
ot	-2473
主意	-2474
图表	-2475
着的	-2476
设想	-2477
远的	-2478
逻辑	-2479
ing	-2480
发现的	-2481
惊人的	-2482
▁《	-2483
全国	-2484
古老	-2485
好奇	-2486
对象	-2487
个例子	-2488
应该是	-2489
有效的	-2490
的行为	-2491
临床	-2492
乐观	-2493
后果	-2494
字母	-2495
我还	-2496
教学	-2497
用它	-2498
看了	-2499
调整	-2500
▁随着	-2501
了不起	-2502
我们将	-2503
注意力	-2504
▁想象一下	-2505
共享	-2506
前面	-2507
名叫	-2508
回去	-2509
带到	-2510
忘记	-2511
毒品	-2512
稳定	-2513
如果我	-2514
▁但他们	-2515
▁我们应该	-2516
un	-2517
▁开	-2518
▁爱	-2519
▁阿	-2520
估计	-2521
效率	-2522
角落	-2523
都要	-2524
▁最近	-2525
感知	-2526
技巧	-2527
识别	-2528
说服	-2529
▁突然	-2530
▁过去	-2531
全新的	-2532
基本的	-2533
美丽的	-2534
黑猩猩	-2535
不幸	-2536
在的	-2537
把我	-2538
生意	-2539
纳米	-2540
致力	-2541
▁成为	-2542
不一样	-2543
动物的	-2544
所说的	-2545
自行车	-2546
某种程度上	-2547
公平	-2548
哪儿	-2549
客户	-2550
死了	-2551
演示	-2552
策略	-2553
行走	-2554
覆盖	-2555
我希望	-2556
段时间	-2557
让人们	-2558
▁在那里	-2559
这些数据	-2560
▁对我来说	-2561
交谈	-2562
发布	-2563
就要	-2564
得了	-2565
照顾	-2566
矛盾	-2567
▁下面	-2568
基金会	-2569
的项目	-2570
21	-2571
▁放	-2572
一边	-2573
指数	-2574
教堂	-2575
最初	-2576
的书	-2577
说是	-2578
起了	-2579
边缘	-2580
透明	-2581
告诉他们	-2582
伙伴	-2583
依靠	-2584
实践	-2585
提升	-2586
更有	-2587
疑问	-2588
震惊	-2589
我们自己	-2590
▁作为一个	-2591
倾向	-2592
前进	-2593
我们也	-2594
▁我们把	-2595
▁我是说	-2596
合法	-2597
回应	-2598
外面	-2599
死去	-2600
送到	-2601
▁是否	-2602
▁观众	-2603
任何人	-2604
创造力	-2605
有没有	-2606
▁很多人	-2607
▁这是一种	-2608
不停	-2609
两年	-2610
会儿	-2611
启动	-2612
富有	-2613
左边	-2614
深刻	-2615
综合	-2616
转移	-2617
▁使得	-2618
不只是	-2619
在这些	-2620
的重要	-2621
斗争	-2622
标记	-2623
这点	-2624
▁这也	-2625
在我的	-2626
▁你需要	-2627
▁我们从	-2628
▁而这些	-2629
▁让他们	-2630
▁这些是	-2631
▁数	-2632
一致	-2633
代码	-2634
投票	-2635
改进	-2636
瞬间	-2637
▁一位	-2638
一件事	-2639
传统的	-2640
▁因为这	-2641
一台	-2642
印象	-2643
特定	-2644
谈话	-2645
赋予	-2646
转化	-2647
的概念	-2648
▁大部分	-2649
基础设施	-2650
一生	-2651
人和	-2652
决策	-2653
教师	-2654
穿着	-2655
紧张	-2656
艰难	-2657
街道	-2658
象征	-2659
▁其他	-2660
唯一的	-2661
很简单	-2662
▁「	-2663
受害	-2664
婚姻	-2665
强调	-2666
形态	-2667
领袖	-2668
▁发现	-2669
▁提供	-2670
向你们	-2671
幻灯片	-2672
,000	-2673
每一个人	-2674
ur	-2675
人工	-2676
商品	-2677
尊重	-2678
文件	-2679
样本	-2680
规划	-2681
重大	-2682
▁是在	-2683
▁每年	-2684
就开始	-2685
是关于	-2686
自然的	-2687
不足	-2688
埃及	-2689
总结	-2690
活跃	-2691
真相	-2692
种植	-2693
高中	-2694
充满了	-2695
听说过	-2696
相关的	-2697
致力于	-2698
去看	-2699
右边	-2700
寻常	-2701
很久	-2702
成立	-2703
手指	-2704
措施	-2705
有机	-2706
玩耍	-2707
算法	-2708
这位	-2709
都被	-2710
你自己	-2711
的事实	-2712
的角度	-2713
知道的	-2714
▁我们所	-2715
?"	-2716
将其	-2717
少年	-2718
演员	-2719
着手	-2720
肌肉	-2721
重建	-2722
创造了	-2723
完美的	-2724
小小的	-2725
非洲的	-2726
发展中国家	-2727
人群	-2728
传染	-2729
化石	-2730
南非	-2731
奖励	-2732
寻求	-2733
愤怒	-2734
推动	-2735
特性	-2736
移民	-2737
必须要	-2738
的生物	-2739
研究的	-2740
进行了	-2741
▁因为在	-2742
▁在美国	-2743
▁然后你	-2744
主题	-2745
开车	-2746
效应	-2747
流感	-2748
视角	-2749
进展	-2750
邻居	-2751
他们说	-2752
感受到	-2753
是我的	-2754
类似的	-2755
一刻	-2756
上有	-2757
严肃	-2758
动机	-2759
围绕	-2760
一开始	-2761
到一个	-2762
的部分	-2763
▁这些都是	-2764
ab	-2765
▁,	-2766
华盛	-2767
录像	-2768
是谁	-2769
没法	-2770
轨道	-2771
▁叫做	-2772
事业	-2773
关联	-2774
存活	-2775
无人	-2776
金属	-2777
▁在那	-2778
▁政府	-2779
华盛顿	-2780
打电话	-2781
朋友们	-2782
的第一	-2783
被称为	-2784
没有什么	-2785
▁我们希望	-2786
▁亚	-2787
人士	-2788
地上	-2789
意见	-2790
明确	-2791
睡眠	-2792
精确	-2793
舞蹈	-2794
血液	-2795
预防	-2796
安德森	-2797
生态系统	-2798
这个故事	-2799
专注	-2800
灵感	-2801
看过	-2802
美洲	-2803
300	-2804
gle	-2805
▁帮助	-2806
▁我能	-2807
因斯坦	-2808
怎么办	-2809
还可以	-2810
▁但是在	-2811
单词	-2812
所需	-2813
杉矶	-2814
片段	-2815
环保	-2816
了解到	-2817
大规模	-2818
洛杉矶	-2819
的所有	-2820
自闭症	-2821
就是这样	-2822
最重要的	-2823
hi	-2824
作家	-2825
对方	-2826
抑郁	-2827
村庄	-2828
费用	-2829
时间的	-2830
非常有	-2831
▁这是一	-2832
我们能够	-2833
专利	-2834
在了	-2835
尼日	-2836
德里	-2837
承诺	-2838
旋转	-2839
来讲	-2840
死于	-2841
直觉	-2842
谈到	-2843
转换	-2844
销售	-2845
▁正是	-2846
一点点	-2847
以色列	-2848
和我们	-2849
的一点	-2850
组织的	-2851
肯尼亚	-2852
飞行器	-2853
▁这些人	-2854
▁我们认为	-2855
便是	-2856
分裂	-2857
前的	-2858
地下	-2859
培训	-2860
成年	-2861
无所	-2862
清晰	-2863
猴子	-2864
至今	-2865
葡萄	-2866
▁拥有	-2867
对我说	-2868
干细胞	-2869
很有趣	-2870
▁我们是	-2871
两者	-2872
展开	-2873
布鲁	-2874
符合	-2875
还会	-2876
阳光	-2877
▁而在	-2878
造成的	-2879
▁现在我	-2880
人体	-2881
仪器	-2882
地位	-2883
拿着	-2884
本来	-2885
流动	-2886
混乱	-2887
私人	-2888
衡量	-2889
跟我	-2890
陌生	-2891
城市的	-2892
特别的	-2893
▁当他们	-2894
▁我已经	-2895
处在	-2896
它会	-2897
律师	-2898
损失	-2899
放大	-2900
犹太	-2901
笔记	-2902
背后	-2903
采访	-2904
▁自己	-2905
做一些	-2906
像这样	-2907
的人类	-2908
▁特别是	-2909
优势	-2910
发射	-2911
差别	-2912
影片	-2913
志愿	-2914
忽略	-2915
抓住	-2916
祖先	-2917
▁想想	-2918
▁改变	-2919
万美元	-2920
特定的	-2921
的位置	-2922
接下来的	-2923
▁我们正在	-2924
ia	-2925
一百	-2926
不对	-2927
为此	-2928
再生	-2929
大型	-2930
子上	-2931
打破	-2932
称作	-2933
观看	-2934
世纪的	-2935
年轻的	-2936
▁该	-2937
之内	-2938
地点	-2939
宣传	-2940
展览	-2941
得更	-2942
才会	-2943
是你	-2944
模仿	-2945
营养	-2946
量子	-2947
地球的	-2948
那么多	-2949
非常的	-2950
▁这是在	-2951
什么时候	-2952
ap	-2953
st	-2954
为何	-2955
充分	-2956
听说	-2957
平方	-2958
愿望	-2959
结婚	-2960
进了	-2961
道理	-2962
金钱	-2963
陷入	-2964
难道	-2965
▁确实	-2966
图书馆	-2967
建筑师	-2968
提到的	-2969
▁世界上	-2970
▁你可能	-2971
▁因为你	-2972
做些什么	-2973
▁你会发现	-2974
ay	-2975
变的	-2976
情形	-2977
数的	-2978
正如	-2979
给他	-2980
高度	-2981
企业家	-2982
技术的	-2983
是怎样	-2984
更大的	-2985
社会的	-2986
组成的	-2987
▁我们想	-2988
%,	-2989
45	-2990
▁哦	-2991
图案	-2992
地理	-2993
场景	-2994
好事	-2995
应当	-2996
指出	-2997
提取	-2998
摆脱	-2999
极了	-3000
现状	-3001
400	-3002
▁印度	-3003
在这儿	-3004
我现在	-3005
拥有的	-3006
让你们	-3007
▁看起来	-3008
你可以看到	-3009
专门	-3010
争论	-3011
倾听	-3012
制定	-3013
加州	-3014
奇迹	-3015
引发	-3016
改造	-3017
达尔	-3018
ill	-3019
是一名	-3020
▁它可以	-3021
▁我们用	-3022
▁我记得	-3023
大多数人	-3024
oogle	-3025
▁[	-3026
▁艾	-3027
人物	-3028
保留	-3029
即将	-3030
尔的	-3031
老年	-3032
健康的	-3033
多样性	-3034
完成的	-3035
的这个	-3036
▁我们开始	-3037
ul	-3038
一遍	-3039
上学	-3040
修复	-3041
最大	-3042
澳大	-3043
贵的	-3044
---	-3045
▁去年	-3046
不喜欢	-3047
带来了	-3048
的变化	-3049
▁我不是	-3050
产业	-3051
出发	-3052
将它	-3053
当作	-3054
得很	-3055
扮演	-3056
疟疾	-3057
神秘	-3058
宇宙的	-3059
告诉大家	-3060
解决问题	-3061
99	-3062
▁r	-3063
▁前	-3064
企鹅	-3065
冒险	-3066
加速	-3067
大陆	-3068
天的	-3069
拿到	-3070
整体	-3071
标签	-3072
短信	-3073
秒钟	-3074
联邦	-3075
▁10	-3076
▁大脑	-3077
▁就能	-3078
听到的	-3079
大学的	-3080
开始的	-3081
此同时	-3082
的城市	-3083
▁你必须	-3084
▁有些人	-3085
我们如何	-3086
澳大利亚	-3087
制的	-3088
年了	-3089
引擎	-3090
稍微	-3091
精彩	-3092
练习	-3093
难题	-3094
黑客	-3095
价值观	-3096
十年代	-3097
其中一个	-3098
尼日利亚	-3099
五个	-3100
像我	-3101
地面	-3102
场的	-3103
大小	-3104
成分	-3105
氧气	-3106
空中	-3107
突破	-3108
马拉	-3109
▁顺便	-3110
严重的	-3111
也不是	-3112
的关系	-3113
▁因为他	-3114
我们知道	-3115
▁但是他们	-3116
em	-3117
你有	-3118
公里	-3119
合成	-3120
头脑	-3121
对吗	-3122
层的	-3123
岁时	-3124
诞生	-3125
靠近	-3126
预算	-3127
▁上面	-3128
▁但你	-3129
▁利用	-3130
▁应该	-3131
▁有着	-3132
为我们	-3133
这个人	-3134
中央	-3135
作出	-3136
多了	-3137
天然	-3138
患有	-3139
惊奇	-3140
所能	-3141
研发	-3142
级的	-3143
致命	-3144
达成	-3145
▁事实	-3146
▁我把	-3147
做这个	-3148
句话说	-3149
的内容	-3150
▁水	-3151
争议	-3152
加上	-3153
意大	-3154
浏览	-3155
立刻	-3156
符号	-3157
腐败	-3158
这段	-3159
远远	-3160
因为我	-3161
心脏病	-3162
美好的	-3163
▁在过去的	-3164
▁所以他们	-3165
代价	-3166
如同	-3167
实施	-3168
层次	-3169
很小	-3170
留下	-3171
▁建立	-3172
▁显然	-3173
其实是	-3174
好消息	-3175
很多的	-3176
▁先	-3177
上千	-3178
不知	-3179
分离	-3180
奴隶	-3181
平面	-3182
我去	-3183
热爱	-3184
的呢	-3185
禁止	-3186
说到	-3187
还没	-3188
遭受	-3189
▁将会	-3190
死亡率	-3191
看不到	-3192
各种各样的	-3193
中东	-3194
中最	-3195
反馈	-3196
发光	-3197
回报	-3198
少的	-3199
带有	-3200
火箭	-3201
穿越	-3202
追踪	-3203
雕塑	-3204
▁经济	-3205
▁每一个	-3206
这张照片	-3207
av	-3208
发电	-3209
吃惊	-3210
屋顶	-3211
教室	-3212
最高	-3213
▁真的	-3214
发明了	-3215
学生们	-3216
完成了	-3217
已经被	-3218
是为了	-3219
的空间	-3220
的经济	-3221
许多人	-3222
在我们的	-3223
保健	-3224
信念	-3225
商店	-3226
希腊	-3227
想的	-3228
手臂	-3229
支付	-3230
规律	-3231
随机	-3232
集体	-3233
饮食	-3234
著名的	-3235
▁问题是	-3236
的问题是	-3237
▁所有这些	-3238
ik	-3239
ps	-3240
保存	-3241
承担	-3242
掉了	-3243
敏感	-3244
移植	-3245
纤维	-3246
蚊子	-3247
都没	-3248
你需要	-3249
是可以	-3250
▁我想要	-3251
."	-3252
塑造	-3253
工人	-3254
开展	-3255
形象	-3256
得出	-3257
激发	-3258
点子	-3259
看出	-3260
着迷	-3261
▁设计	-3262
▁除非	-3263
别人的	-3264
原因是	-3265
展示了	-3266
是如此	-3267
这两个	-3268
▁或者说	-3269
▁等	-3270
一小	-3271
不久	-3272
加拿	-3273
南极	-3274
夏天	-3275
构建	-3276
沮丧	-3277
激情	-3278
紧密	-3279
俄罗斯	-3280
安全的	-3281
特殊的	-3282
的一种	-3283
▁孩子们	-3284
任何一个	-3285
给你们看	-3286
▁听	-3287
一辆	-3288
回收	-3289
回顾	-3290
奇妙	-3291
无限	-3292
显著	-3293
玩笑	-3294
的前	-3295
纪录	-3296
表情	-3297
这场	-3298
驱动	-3299
ard	-3300
▁两个	-3301
▁真正	-3302
消费者	-3303
的样子	-3304
的那些	-3305
获得了	-3306
部电影	-3307
了个	-3308
五年	-3309
以下	-3310
传感	-3311
光线	-3312
哺乳	-3313
所未	-3314
着我	-3315
运输	-3316
重视	-3317
son	-3318
you	-3319
▁必须	-3320
非常非常	-3321
免疫	-3322
分开	-3323
北极	-3324
娱乐	-3325
它在	-3326
对称	-3327
尔夫	-3328
影像	-3329
忽视	-3330
感情	-3331
潜力	-3332
班牙	-3333
生理	-3334
论文	-3335
首歌	-3336
麦克	-3337
▁你在	-3338
很明显	-3339
西班牙	-3340
一段时间	-3341
我不知道	-3342
▁理	-3343
家的	-3344
小说	-3345
成绩	-3346
推广	-3347
擅长	-3348
数以	-3349
沿着	-3350
洞穴	-3351
起源	-3352
奇怪的	-3353
运动员	-3354
▁您	-3355
国会	-3356
土壤	-3357
意外	-3358
懂得	-3359
更为	-3360
格兰	-3361
毕竟	-3362
贸易	-3363
这只	-3364
▁一切	-3365
不平等	-3366
意义的	-3367
有一种	-3368
这里的	-3369
他们可以	-3370
之下	-3371
变暖	-3372
品牌	-3373
想像	-3374
构造	-3375
点击	-3376
繁殖	-3377
编辑	-3378
肥胖	-3379
▁但他	-3380
▁超过	-3381
▁问题	-3382
主义的	-3383
做到的	-3384
意义上	-3385
有两个	-3386
科医生	-3387
能看到	-3388
什么样的	-3389
做的就是	-3390
.5	-3391
▁四	-3392
促进	-3393
动画	-3394
取代	-3395
形的	-3396
民族	-3397
穷人	-3398
评估	-3399
高速	-3400
黑洞	-3401
▁变成	-3402
▁每次	-3403
▁科学	-3404
▁经过	-3405
▁他们都	-3406
发生的事情	-3407
几天	-3408
少数	-3409
巴基	-3410
扩大	-3411
指导	-3412
步骤	-3413
气球	-3414
脑海	-3415
贷款	-3416
鲨鱼	-3417
▁主要	-3418
▁女性	-3419
▁用来	-3420
▁重新	-3421
的数量	-3422
为什么要	-3423
了我们的	-3424
他们自己的	-3425
使我	-3426
分配	-3427
发达	-3428
基督	-3429
安装	-3430
延伸	-3431
景象	-3432
每一	-3433
民众	-3434
注射	-3435
融合	-3436
街上	-3437
▁这项	-3438
受害者	-3439
的动物	-3440
的女性	-3441
的观点	-3442
▁但是这	-3443
▁所以你	-3444
最喜欢的	-3445
▁因此我们	-3446
▁过	-3447
个性	-3448
五十	-3449
安排	-3450
小组	-3451
异常	-3452
引导	-3453
更高	-3454
海豚	-3455
礼物	-3456
节奏	-3457
one	-3458
▁想象	-3459
的演讲	-3460
▁但是你	-3461
▁在这些	-3462
▁我只是	-3463
单一	-3464
吸收	-3465
尔斯	-3466
差距	-3467
当今	-3468
愚蠢	-3469
探讨	-3470
申请	-3471
药品	-3472
诊所	-3473
里有	-3474
克里斯	-3475
学到的	-3476
的工具	-3477
认为是	-3478
面临的	-3479
▁所以说	-3480
▁他们可以	-3481
ie	-3482
也很	-3483
几百	-3484
原本	-3485
反映	-3486
国的	-3487
天文	-3488
崩溃	-3489
感官	-3490
昨天	-3491
杀死	-3492
腺癌	-3493
贝尔	-3494
连续	-3495
▁到了	-3496
不断地	-3497
可怕的	-3498
有能力	-3499
的公司	-3500
经历了	-3501
进行的	-3502
▁没有人	-3503
我的工作	-3504
生物学家	-3505
▁其中一个	-3506
▁5	-3507
三十	-3508
受伤	-3509
房屋	-3510
欣赏	-3511
石头	-3512
the	-3513
▁不能	-3514
个国家	-3515
已经在	-3516
当地的	-3517
有时候	-3518
疾病的	-3519
看一下	-3520
因为我们	-3521
巴基斯坦	-3522
▁写	-3523
不少	-3524
可是	-3525
快的	-3526
描绘	-3527
教会	-3528
特点	-3529
贫民	-3530
▁怎么	-3531
或者是	-3532
的话题	-3533
达尔文	-3534
领导者	-3535
▁第二个	-3536
单位	-3537
原来	-3538
替代	-3539
的外	-3540
种类	-3541
▁我问	-3542
▁答案	-3543
一定要	-3544
个人的	-3545
传感器	-3546
有机会	-3547
▁我需要	-3548
中的一个	-3549
物理学家	-3550
三维	-3551
与人	-3552
体会	-3553
密度	-3554
局限	-3555
微笑	-3556
抽象	-3557
游泳	-3558
解放	-3559
认同	-3560
镜头	-3561
防止	-3562
198	-3563
不是吗	-3564
在座的	-3565
大家都	-3566
意大利	-3567
提供了	-3568
运动的	-3569
▁是我们	-3570
ge	-3571
住了	-3572
保险	-3573
处的	-3574
定位	-3575
温室	-3576
讲的	-3577
资助	-3578
那天	-3579
频率	-3580
魔术	-3581
▁自然	-3582
在那儿	-3583
我们还	-3584
▁你就会	-3585
▁就可以	-3586
▁我今天	-3587
▁然后他	-3588
只是一个	-3589
op	-3590
ow	-3591
▁外	-3592
▁长	-3593
亚洲	-3594
农场	-3595
分之	-3596
却是	-3597
和你	-3598
头发	-3599
拉斯	-3600
探险	-3601
清洁	-3602
爆发	-3603
生素	-3604
白人	-3605
马斯	-3606
▁不论	-3607
病人的	-3608
的未来	-3609
▁所以在	-3610
▁有很多	-3611
不去	-3612
为你	-3613
学术	-3614
定律	-3615
恰恰	-3616
想过	-3617
战斗	-3618
护士	-3619
显微	-3620
灵魂	-3621
统治	-3622
芯片	-3623
跟踪	-3624
链接	-3625
骨骼	-3626
▁非洲	-3627
也许会	-3628
我们从	-3629
是一位	-3630
▁也可以	-3631
▁它们是	-3632
▁及	-3633
▁太	-3634
不安	-3635
勇气	-3636
去世	-3637
哈佛	-3638
携带	-3639
种子	-3640
美的	-3641
老人	-3642
讨厌	-3643
设置	-3644
进程	-3645
ook	-3646
▁它在	-3647
▁认为	-3648
▁这对	-3649
不应该	-3650
他们所	-3651
开始了	-3652
成一个	-3653
离开了	-3654
变得更加	-3655
的是什么	-3656
这个想法	-3657
▁然后他们	-3658
google	-3659
先进	-3660
内的	-3661
固定	-3662
对比	-3663
性和	-3664
我从	-3665
棒了	-3666
观的	-3667
辐射	-3668
这幅	-3669
▁不会	-3670
▁假设	-3671
▁里面	-3672
停下来	-3673
的食物	-3674
笔记本	-3675
不是一个	-3676
▁我们如何	-3677
▁我们能够	-3678
▁换句话说	-3679
um	-3680
仪式	-3681
写作	-3682
大楼	-3683
姐妹	-3684
对抗	-3685
广场	-3686
得知	-3687
承受	-3688
推特	-3689
植入	-3690
治愈	-3691
火车	-3692
盒子	-3693
课堂	-3694
骨头	-3695
▁我被	-3696
▁把它	-3697
地区的	-3698
摄像机	-3699
起来的	-3700
▁我一直	-3701
sa	-3702
▁既	-3703
交换	-3704
停车	-3705
公正	-3706
军事	-3707
协调	-3708
在一	-3709
更大	-3710
▁ch	-3711
▁无法	-3712
▁笑声	-3713
我没有	-3714
政府的	-3715
更好地	-3716
消失了	-3717
▁所以这	-3718
▁这一切	-3719
世上	-3720
乔治	-3721
交互	-3722
体现	-3723
保守	-3724
信心	-3725
分散	-3726
坚信	-3727
小心	-3728
庆祝	-3729
无聊	-3730
棒的	-3731
瑞典	-3732
用在	-3733
罪犯	-3734
而来	-3735
跨越	-3736
运转	-3737
远离	-3738
▁一起	-3739
之前的	-3740
几年前	-3741
同情心	-3742
这本书	-3743
▁ted	-3744
▁我们没有	-3745
▁这就是我们	-3746
▁别	-3747
▁带	-3748
委员	-3749
家长	-3750
岩石	-3751
强的	-3752
整合	-3753
日子	-3754
查德	-3755
波士	-3756
满意	-3757
▁这位	-3758
当他们	-3759
▁同样的	-3760
这些事情	-3761
▁我意识到	-3762
35	-3763
举手	-3764
加哥	-3765
动态	-3766
天空	-3767
扩展	-3768
指挥	-3769
是被	-3770
疼痛	-3771
确信	-3772
编程	-3773
认真	-3774
走出	-3775
阿尔	-3776
▁回到	-3777
▁我曾	-3778
▁相反	-3779
▁这次	-3780
做到了	-3781
存在着	-3782
珊瑚礁	-3783
用一个	-3784
芝加哥	-3785
意味着什么	-3786
ck	-3787
▁6	-3788
乐队	-3789
作业	-3790
厕所	-3791
各自	-3792
合物	-3793
她说	-3794
推进	-3795
无关	-3796
旧金	-3797
水中	-3798
法案	-3799
灵活	-3800
繁荣	-3801
脊髓	-3802
蜘蛛	-3803
ver	-3804
▁学习	-3805
▁并不	-3806
▁找到	-3807
▁进入	-3808
典型的	-3809
在你的	-3810
女性的	-3811
宇宙中	-3812
旧金山	-3813
是这个	-3814
波士顿	-3815
独特的	-3816
的名字	-3817
科学的	-3818
这么说	-3819
▁我看到	-3820
所有人都	-3821
▁因	-3822
一句	-3823
一大	-3824
一座	-3825
众人	-3826
保罗	-3827
具备	-3828
树木	-3829
活着	-3830
舒服	-3831
越多	-3832
退休	-3833
▁医生	-3834
▁有趣	-3835
和一个	-3836
尽可能	-3837
的经历	-3838
▁在我的	-3839
▁就好像	-3840
非常感谢	-3841
▁但事实上	-3842
▁如果他们	-3843
▁这就是我	-3844
付出	-3845
冰川	-3846
单独	-3847
史蒂	-3848
哲学	-3849
就被	-3850
接收	-3851
方便	-3852
法则	-3853
牺牲	-3854
疗法	-3855
粮食	-3856
诗歌	-3857
黄金	-3858
▁它能	-3859
▁有关	-3860
▁都在	-3861
创造出	-3862
太阳系	-3863
将这些	-3864
就像是	-3865
志愿者	-3866
想要的	-3867
▁e	-3868
▁发	-3869
两倍	-3870
听过	-3871
命运	-3872
团结	-3873
宣布	-3874
家族	-3875
祖母	-3876
马逊	-3877
▁令人	-3878
▁曾经	-3879
▁解决	-3880
之类的	-3881
你必须	-3882
大自然	-3883
形成的	-3884
漂亮的	-3885
的系统	-3886
青少年	-3887
▁有一天	-3888
一些东西	-3889
▁我们看到	-3890
sh	-3891
▁9	-3892
▁斯	-3893
利润	-3894
墙上	-3895
帮我	-3896
忘了	-3897
戏剧	-3898
捕捉	-3899
方的	-3900
是用	-3901
栖息	-3902
没错	-3903
监控	-3904
精力	-3905
航空	-3906
▁地球	-3907
▁都会	-3908
有点像	-3909
有许多	-3910
的朋友	-3911
的目标	-3912
身体的	-3913
▁我没有	-3914
久的	-3915
他是	-3916
偏见	-3917
厨房	-3918
而易	-3919
自主	-3920
让他	-3921
赢得	-3922
过滤	-3923
采集	-3924
鱼类	-3925
▁这么	-3926
古老的	-3927
就这样	-3928
我相信	-3929
站起来	-3930
▁以至于	-3931
▁它们的	-3932
经济学家	-3933
▁已	-3934
亿人	-3935
听众	-3936
噪音	-3937
斯的	-3938
焦虑	-3939
视为	-3940
餐厅	-3941
饥饿	-3942
高效	-3943
▁我只	-3944
▁都有	-3945
学到了	-3946
工作者	-3947
幸的是	-3948
建筑物	-3949
我们想	-3950
星球上	-3951
显微镜	-3952
▁但如果	-3953
三分之一	-3954
就是一个	-3955
变得越来越	-3956
od	-3957
▁二	-3958
▁同	-3959
▁打	-3960
▁罗	-3961
三角	-3962
人性	-3963
传达	-3964
后代	-3965
对你	-3966
干净	-3967
扩张	-3968
胜利	-3969
隐私	-3970
150	-3971
ube	-3972
▁想要	-3973
▁感谢	-3974
从一个	-3975
刚开始	-3976
女士们	-3977
展示的	-3978
本质上	-3979
着我们	-3980
做了一个	-3981
▁但如果你	-3982
▁我们不能	-3983
:"	-3984
ak	-3985
▁真	-3986
不像	-3987
不止	-3988
书籍	-3989
分辨	-3990
午餐	-3991
掌控	-3992
框架	-3993
正义	-3994
热带	-3995
现今	-3996
生涯	-3997
自豪	-3998
至关	-3999
试试	-4000
起的	-4001
转向	-4002
风格	-4003
ber	-4004
▁知道	-4005
▁这儿	-4006
不会有	-4007
创造的	-4008
因为它	-4009
我需要	-4010
找到的	-4011
正常的	-4012
类型的	-4013
还有一个	-4014
:”	-4015
▁4	-4016
▁仅	-4017
三种	-4018
作者	-4019
保障	-4020
北部	-4021
印刷	-4022
强迫	-4023
战略	-4024
椅子	-4025
法官	-4026
目睹	-4027
经营	-4028
赚钱	-4029
非凡	-4030
▁导致	-4031
▁生命	-4032
环境中	-4033
的基础	-4034
▁这里是	-4035
创造一个	-4036
我们发现	-4037
我们的生活	-4038
ce	-4039
▁问	-4040
一部	-4041
上来	-4042
以外	-4043
伯特	-4044
关闭	-4045
协议	-4046
屠杀	-4047
燃烧	-4048
百科	-4049
蝙蝠	-4050
身处	-4051
部件	-4052
鸟类	-4053
▁要么	-4054
▁试图	-4055
加拿大	-4056
完整的	-4057
遇到了	-4058
▁我曾经	-4059
▁而这个	-4060
最后一个	-4061
越来越多	-4062
▁它是一个	-4063
一本	-4064
三年	-4065
你不	-4066
劳动	-4067
含义	-4068
巴马	-4069
拿出	-4070
深深	-4071
睡觉	-4072
美妙	-4073
脑袋	-4074
花粉	-4075
野生	-4076
钢琴	-4077
▁那种	-4078
中的一	-4079
人们在	-4080
你就会	-4081
准备好	-4082
普通的	-4083
进化的	-4084
不可能的	-4085
我们开始	-4086
▁你可能会	-4087
众多	-4088
做好	-4089
共和	-4090
分类	-4091
回忆	-4092
大会	-4093
孤独	-4094
敌人	-4095
查看	-4096
歧视	-4097
河流	-4098
理工	-4099
网页	-4100
讲话	-4101
边界	-4102
部位	-4103
部队	-4104
▁音乐	-4105
出现的	-4106
委员会	-4107
我一直	-4108
的就是	-4109
美元的	-4110
▁不仅仅是	-4111
▁这是我的	-4112
75	-4113
▁光	-4114
一想	-4115
安静	-4116
将是	-4117
心灵	-4118
悲剧	-4119
掌声	-4120
有限	-4121
本地	-4122
模糊	-4123
水的	-4124
液体	-4125
炸弹	-4126
爱情	-4127
的光	-4128
规定	-4129
证实	-4130
说了	-4131
质疑	-4132
跟你	-4133
这两	-4134
飞船	-4135
▁ro	-4136
▁似乎	-4137
▁我来	-4138
▁相信	-4139
▁这时	-4140
可以用	-4141
和他们	-4142
和他的	-4143
困难的	-4144
大脑中	-4145
太棒了	-4146
把自己	-4147
时代的	-4148
的一面	-4149
第三个	-4150
▁我非常	-4151
现在我们	-4152
的过程中	-4153
▁你们知道	-4154
了的	-4155
事故	-4156
写了	-4157
周期	-4158
圣经	-4159
多久	-4160
界面	-4161
皮层	-4162
降落	-4163
▁我所	-4164
▁此外	-4165
不错的	-4166
优秀的	-4167
其它的	-4168
想象的	-4169
的历史	-4170
着一个	-4171
▁几年前	-4172
▁有一些	-4173
科学家们	-4174
dp	-4175
▁五	-4176
▁埃	-4177
。。	-4178
万个	-4179
以上	-4180
会是	-4181
做些	-4182
否则	-4183
圣诞	-4184
学者	-4185
尺寸	-4186
放进	-4187
毁灭	-4188
生成	-4189
编码	-4190
花园	-4191
车的	-4192
雨林	-4193
非法	-4194
顺利	-4195
▁了解	-4196
▁得到	-4197
对这个	-4198
房间里	-4199
现有的	-4200
给我的	-4201
这是我	-4202
实际上是	-4203
建立一个	-4204
▁每个人都	-4205
ne	-4206
▁中	-4207
▁出	-4208
▁重	-4209
加拉	-4210
告知	-4211
多种	-4212
惩罚	-4213
抗议	-4214
拉丁	-4215
有两	-4216
板上	-4217
渐渐	-4218
见了	-4219
通讯	-4220
顾客	-4221
▁在座	-4222
▁那就	-4223
信息的	-4224
先生们	-4225
前所未	-4226
实现的	-4227
的运动	-4228
的那个	-4229
因为他们	-4230
大家分享	-4231
联系起来	-4232
▁我是一个	-4233
▁所以我想	-4234
▁那么我们	-4235
▁卡	-4236
做成	-4237
反复	-4238
在想	-4239
大象	-4240
字典	-4241
序列	-4242
惊人	-4243
消除	-4244
深处	-4245
激素	-4246
玩家	-4247
的开	-4248
英文	-4249
要去	-4250
词汇	-4251
负担	-4252
跟着	-4253
重的	-4254
▁有点	-4255
事物的	-4256
危险的	-4257
和你们	-4258
我喜欢	-4259
把我们	-4260
只有一个	-4261
毫无疑问	-4262
▁如果你想	-4263
ig	-4264
▁受	-4265
▁奥	-4266
体制	-4267
区的	-4268
向前	-4269
场所	-4270
多年	-4271
天堂	-4272
天气	-4273
广播	-4274
心里	-4275
沉默	-4276
理性	-4277
的几	-4278
竟然	-4279
雇佣	-4280
▁一般	-4281
▁城市	-4282
▁尝试	-4283
▁看着	-4284
下一代	-4285
不断的	-4286
世界里	-4287
你不能	-4288
倾向于	-4289
屏幕上	-4290
找不到	-4291
指的是	-4292
的作品	-4293
▁这只是	-4294
▁。	-4295
▁据	-4296
一千	-4297
为人	-4298
们的	-4299
体育	-4300
作物	-4301
利福	-4302
国内	-4303
在他	-4304
始终	-4305
威尔	-4306
学科	-4307
宝宝	-4308
就不	-4309
开了	-4310
我被	-4311
明天	-4312
概率	-4313
海底	-4314
源于	-4315
眼镜	-4316
组装	-4317
缺陷	-4318
膨胀	-4319
莱坞	-4320
融入	-4321
街头	-4322
观测	-4323
讽刺	-4324
遵循	-4325
魅力	-4326
鲸鱼	-4327
ell	-4328
▁随后	-4329
创新的	-4330
自身的	-4331
让大家	-4332
领域的	-4333
tube	-4334
心理学家	-4335
改变世界	-4336
youtube	-4337
ma	-4338
▁十	-4339
▁哪	-4340
令我	-4341
克服	-4342
克林	-4343
姆斯	-4344
干预	-4345
形容	-4346
成熟	-4347
染色	-4348
欺骗	-4349
的路	-4350
祈祷	-4351
立即	-4352
线上	-4353
追溯	-4354
▁在此	-4355
形成了	-4356
的反应	-4357
领导人	-4358
aceb	-4359
▁你不能	-4360
▁我必须	-4361
恐怖分子	-4362
还有很多	-4363
▁举个例子	-4364
▁这是因为	-4365
acebook	-4366
ir	-4367
▁起	-4368
两次	-4369
前往	-4370
双手	-4371
完善	-4372
成像	-4373
整整	-4374
生日	-4375
相连	-4376
美分	-4377
脂肪	-4378
自信	-4379
走路	-4380
页面	-4381
鼓舞	-4382
▁即便	-4383
▁如此	-4384
▁	-4385
的	-4386
,	-4387
我	-4388
。	-4389
是	-4390
们	-4391
一	-4392
这	-4393
在	-4394
个	-4395
有	-4396
了	-4397
不	-4398
人	-4399
你	-4400
他	-4401
到	-4402
以	-4403
为	-4404
来	-4405
就	-4406
些	-4407
会	-4408
能	-4409
上	-4410
可	-4411
大	-4412
要	-4413
那	-4414
时	-4415
它	-4416
和	-4417
生	-4418
所	-4419
中	-4420
么	-4421
如	-4422
说	-4423
看	-4424
想	-4425
现	-4426
里	-4427
很	-4428
多	-4429
样	-4430
用	-4431
对	-4432
0	-4433
过	-4434
地	-4435
但	-4436
因	-4437
也	-4438
而	-4439
事	-4440
都	-4441
?	-4442
发	-4443
家	-4444
得	-4445
于	-4446
后	-4447
种	-4448
做	-4449
年	-4450
自	-4451
当	-4452
学	-4453
子	-4454
成	-4455
“	-4456
实	-4457
作	-4458
出	-4459
然	-4460
”	-4461
方	-4462
去	-4463
果	-4464
下	-4465
好	-4466
开	-4467
没	-4468
:	-4469
经	-4470
最	-4471
国	-4472
-	-4473
之	-4474
同	-4475
物	-4476
着	-4477
分	-4478
还	-4479
道	-4480
什	-4481
其	-4482
知	-4483
行	-4484
从	-4485
动	-4486
问	-4487
a	-4488
常	-4489
意	-4490
让	-4491
1	-4492
者	-4493
面	-4494
并	-4495
法	-4496
非	-4497
.	-4498
起	-4499
更	-4500
变	-4501
e	-4502
性	-4503
力	-4504
机	-4505
只	-4506
把	-4507
正	-4508
被	-4509
间	-4510
题	-4511
—	-4512
天	-4513
前	-4514
关	-4515
世	-4516
情	-4517
小	-4518
工	-4519
体	-4520
数	-4521
理	-4522
点	-4523
或	-4524
将	-4525
像	-4526
进	-4527
她	-4528
重	-4529
感	-4530
界	-4531
比	-4532
美	-4533
全	-4534
化	-4535
相	-4536
解	-4537
此	-4538
给	-4539
何	-4540
新	-4541
定	-4542
信	-4543
2	-4544
需	-4545
部	-4546
真	-4547
西	-4548
、	-4549
心	-4550
本	-4551
每	-4552
始	-4553
候	-4554
使	-4555
己	-4556
i	-4557
与	-4558
度	-4559
无	-4560
r	-4561
电	-4562
系	-4563
认	-4564
且	-4565
n	-4566
应	-4567
o	-4568
计	-4569
活	-4570
已	-4571
通	-4572
类	-4573
t	-4574
明	-4575
量	-4576
制	-4577
特	-4578
公	-4579
造	-4580
第	-4581
式	-4582
加	-4583
斯	-4584
长	-4585
设	-4586
次	-4587
接	-4588
觉	-4589
东	-4590
手	-4591
结	-4592
高	-4593
孩	-4594
利	-4595
两	-4596
5	-4597
s	-4598
基	-4599
建	-4600
回	-4601
身	-4602
入	-4603
合	-4604
程	-4605
术	-4606
表	-4607
d	-4608
谢	-4609
论	-4610
许	-4611
话	-4612
代	-4613
科	-4614
球	-4615
件	-4616
女	-4617
展	-4618
目	-4619
位	-4620
提	-4621
主	-4622
外	-4623
图	-4624
几	-4625
教	-4626
产	-4627
受	-4628
片	-4629
器	-4630
l	-4631
脑	-4632
放	-4633
任	-4634
病	-4635
业	-4636
完	-4637
决	-4638
直	-4639
水	-4640
统	-4641
仅	-4642
创	-4643
改	-4644
技	-4645
及	-4646
内	-4647
向	-4648
观	-4649
再	-4650
呢	-4651
研	-4652
儿	-4653
究	-4654
确	-4655
带	-4656
试	-4657
够	-4658
三	-4659
十	-4660
别	-4661
告	-4662
区	-4663
思	-4664
场	-4665
处	-4666
少	-4667
怎	-4668
车	-4669
原	-4670
望	-4671
找	-4672
运	-4673
c	-4674
社	-4675
太	-4676
象	-4677
9	-4678
名	-4679
保	-4680
影	-4681
识	-4682
网	-4683
今	-4684
该	-4685
平	-4686
3	-4687
克	-4688
尔	-4689
据	-4690
由	-4691
色	-4692
品	-4693
市	-4694
至	-4695
组	-4696
万	-4697
听	-4698
见	-4699
达	-4700
视	-4701
文	-4702
讲	-4703
海	-4704
难	-4705
m	-4706
头	-4707
吗	-4708
存	-4709
星	-4710
音	-4711
另	-4712
命	-4713
验	-4714
政	-4715
等	-4716
才	-4717
h	-4718
单	-4719
期	-4720
乐	-4721
气	-4722
形	-4723
示	-4724
息	-4725
诉	-4726
义	-4727
各	-4728
拉	-4729
民	-4730
管	-4731
记	-4732
模	-4733
神	-4734
例	-4735
空	-4736
走	-4737
传	-4738
打	-4739
必	-4740
演	-4741
整	-4742
越	-4743
交	-4744
反	-4745
际	-4746
持	-4747
故	-4748
二	-4749
4	-4750
项	-4751
助	-4752
先	-4753
边	-4754
资	-4755
复	-4756
医	-4757
照	-4758
选	-4759
安	-4760
字	-4761
细	-4762
光	-4763
立	-4764
"	-4765
又	-4766
吧	-4767
战	-4768
希	-4769
算	-4770
员	-4771
流	-4772
b	-4773
德	-4774
p	-4775
爱	-4776
百	-4777
声	-4778
质	-4779
标	-4780
约	-4781
联	-4782
亚	-4783
总	-4784
注	-4785
源	-4786
叫	-4787
快	-4788
测	-4789
线	-4790
·	-4791
英	-4792
跟	-4793
金	-4794
未	-4795
历	-4796
g	-4797
条	-4798
谈	-4799
收	-4800
型	-4801
老	-4802
喜	-4803
u	-4804
具	-4805
8	-4806
治	-4807
花	-4808
远	-4809
言	-4810
张	-4811
切	-4812
帮	-4813
简	-4814
马	-4815
死	-4816
环	-4817
取	-4818
失	-4819
师	-4820
语	-4821
路	-4822
须	-4823
极	-4824
转	-4825
6	-4826
某	-4827
书	-4828
显	-4829
欢	-4830
离	-4831
考	-4832
导	-4833
构	-4834
白	-4835
领	-4836
司	-4837
洲	-4838
案	-4839
月	-4840
奇	-4841
口	-4842
飞	-4843
近	-4844
食	-4845
响	-4846
众	-4847
共	-4848
消	-4849
7	-4850
段	-4851
住	-4852
强	-4853
元	-4854
况	-4855
趣	-4856
却	-4857
步	-4858
日	-4859
境	-4860
士	-4861
写	-4862
刚	-4863
料	-4864
城	-4865
!	-4866
根	-4867
指	-4868
错	-4869
%	-4870
服	-4871
哪	-4872
续	-4873
布	-4874
亲	-4875
四	-4876
效	-4877
集	-4878
男	-4879
画	-4880
甚	-4881
功	-4882
包	-4883
即	-4884
格	-4885
费	-4886
角	-4887
游	-4888
容	-4889
k	-4890
岁	-4891
周	-4892
议	-4893
室	-4894
尼	-4895
习	-4896
互	-4897
印	-4898
超	-4899
)	-4900
母	-4901
争	-4902
准	-4903
状	-4904
引	-4905
证	-4906
千	-4907
称	-4908
维	-4909
曾	-4910
(	-4911
权	-4912
首	-4913
深	-4914
济	-4915
求	-4916
备	-4917
兴	-4918
群	-4919
精	-4920
终	-4921
域	-4922
巴	-4923
速	-4924
便	-4925
值	-4926
供	-4927
友	-4928
育	-4929
疗	-4930
价	-4931
参	-4932
层	-4933
则	-4934
织	-4935
概	-4936
似	-4937
断	-4938
态	-4939
随	-4940
调	-4941
y	-4942
钱	-4943
乎	-4944
♫	-4945
眼	-4946
拥	-4947
否	-4948
站	-4949
置	-4950
请	-4951
清	-4952
五	-4953
装	-4954
答	-4955
护	-4956
务	-4957
风	-4958
增	-4959
择	-4960
控	-4961
史	-4962
规	-4963
节	-4964
易	-4965
底	-4966
投	-4967
味	-4968
杂	-4969
预	-4970
念	-4971
微	-4972
激	-4973
症	-4974
报	-4975
房	-4976
足	-4977
林	-4978
干	-4979
台	-4980
满	-4981
尽	-4982
率	-4983
办	-4984
艺	-4985
黑	-4986
亿	-4987
致	-4988
获	-4989
阿	-4990
拿	-4991
专	-4992
胞	-4993
队	-4994
令	-4995
支	-4996
热	-4997
商	-4998
围	-4999
绝	-5000
罗	-5001
假	-5002
玩	-5003
查	-5004
止	-5005
门	-5006
刻	-5007
府	-5008
笑	-5009
往	-5010
校	-5011
药	-5012
轻	-5013
团	-5014
移	-5015
幸	-5016
素	-5017
富	-5018
惊	-5019
纪	-5020
待	-5021
密	-5022
连	-5023
险	-5024
除	-5025
号	-5026
低	-5027
石	-5028
早	-5029
愿	-5030
卡	-5031
推	-5032
录	-5033
半	-5034
朋	-5035
络	-5036
鱼	-5037
索	-5038
父	-5039
寻	-5040
米	-5041
察	-5042
读	-5043
害	-5044
享	-5045
巨	-5046
火	-5047
院	-5048
击	-5049
列	-5050
划	-5051
举	-5052
买	-5053
毒	-5054
差	-5055
筑	-5056
突	-5057
健	-5058
戏	-5059
停	-5060
探	-5061
坐	-5062
排	-5063
兰	-5064
释	-5065
吃	-5066
f	-5067
康	-5068
词	-5069
恐	-5070
谁	-5071
级	-5072
普	-5073
独	-5074
适	-5075
土	-5076
客	-5077
钟	-5078
广	-5079
博	-5080
拍	-5081
疾	-5082
;	-5083
落	-5084
座	-5085
w	-5086
份	-5087
充	-5088
讨	-5089
述	-5090
山	-5091
油	-5092
吸	-5093
困	-5094
景	-5095
较	-5096
歌	-5097
智	-5098
养	-5099
植	-5100
降	-5101
摄	-5102
宇	-5103
律	-5104
纳	-5105
伊	-5106
块	-5107
危	-5108
州	-5109
尝	-5110
限	-5111
穿	-5112
频	-5113
久	-5114
妈	-5115
庭	-5116
伤	-5117
洋	-5118
福	-5119
杀	-5120
减	-5121
仍	-5122
继	-5123
阳	-5124
革	-5125
射	-5126
临	-5127
南	-5128
掉	-5129
夫	-5130
采	-5131
啊	-5132
留	-5133
依	-5134
宙	-5135
播	-5136
v	-5137
威	-5138
亡	-5139
晚	-5140
居	-5141
短	-5142
换	-5143
温	-5144
染	-5145
核	-5146
棒	-5147
压	-5148
破	-5149
暴	-5150
六	-5151
积	-5152
严	-5153
救	-5154
序	-5155
坏	-5156
挑	-5157
纸	-5158
掌	-5159
》	-5160
异	-5161
《	-5162
森	-5163
卫	-5164
哈	-5165
板	-5166
血	-5167
遇	-5168
树	-5169
j	-5170
犯	-5171
监	-5172
担	-5173
鼓	-5174
责	-5175
升	-5176
汽	-5177
军	-5178
努	-5179
善	-5180
背	-5181
课	-5182
官	-5183
益	-5184
肯	-5185
怕	-5186
虑	-5187
误	-5188
材	-5189
括	-5190
慢	-5191
势	-5192
策	-5193
癌	-5194
皮	-5195
触	-5196
波	-5197
免	-5198
左	-5199
承	-5200
描	-5201
靠	-5202
束	-5203
患	-5204
顿	-5205
镜	-5206
北	-5207
码	-5208
营	-5209
族	-5210
农	-5211
送	-5212
馆	-5213
抗	-5214
旅	-5215
古	-5216
局	-5217
红	-5218
哥	-5219
施	-5220
童	-5221
句	-5222
志	-5223
欧	-5224
剧	-5225
灵	-5226
顶	-5227
负	-5228
倍	-5229
永	-5230
虫	-5231
范	-5232
冰	-5233
右	-5234
紧	-5235
冲	-5236
怪	-5237
街	-5238
坦	-5239
园	-5240
优	-5241
舞	-5242
伦	-5243
菌	-5244
艾	-5245
纽	-5246
奥	-5247
唯	-5248
曲	-5249
丽	-5250
键	-5251
初	-5252
潜	-5253
户	-5254
痛	-5255
灯	-5256
媒	-5257
追	-5258
付	-5259
聚	-5260
修	-5261
双	-5262
防	-5263
船	-5264
虽	-5265
练	-5266
贫	-5267
版	-5268
含	-5269
塑	-5270
端	-5271
编	-5272
属	-5273
败	-5274
伯	-5275
软	-5276
疑	-5277
赛	-5278
梦	-5279
警	-5280
木	-5281
架	-5282
企	-5283
弹	-5284
职	-5285
输	-5286
配	-5287
八	-5288
评	-5289
按	-5290
沙	-5291
础	-5292
诺	-5293
训	-5294
般	-5295
圣	-5296
介	-5297
亮	-5298
楚	-5299
跳	-5300
卖	-5301
骨	-5302
罪	-5303
遍	-5304
励	-5305
华	-5306
盖	-5307
阶	-5308
闻	-5309
检	-5310
典	-5311
尺	-5312
贝	-5313
跑	-5314
缺	-5315
岛	-5316
恶	-5317
协	-5318
伟	-5319
迷	-5320
苦	-5321
略	-5322
均	-5323
怀	-5324
暗	-5325
妙	-5326
伙	-5327
河	-5328
洞	-5329
顾	-5330
塔	-5331
启	-5332
帝	-5333
翻	-5334
牛	-5335
穷	-5336
征	-5337
呼	-5338
坚	-5339
七	-5340
融	-5341
蓝	-5342
藏	-5343
酒	-5344
班	-5345
糟	-5346
捕	-5347
避	-5348
肉	-5349
奋	-5350
x	-5351
倒	-5352
混	-5353
绿	-5354
埃	-5355
萨	-5356
幅	-5357
餐	-5358
笔	-5359
村	-5360
遗	-5361
店	-5362
章	-5363
脏	-5364
航	-5365
屋	-5366
堂	-5367
旧	-5368
托	-5369
析	-5370
碳	-5371
顺	-5372
派	-5373
私	-5374
距	-5375
渐	-5376
诗	-5377
幻	-5378
麻	-5379
姆	-5380
♪	-5381
奖	-5382
谷	-5383
脚	-5384
蛋	-5385
冷	-5386
洛	-5387
妇	-5388
曼	-5389
财	-5390
折	-5391
隐	-5392
零	-5393
判	-5394
巧	-5395
熟	-5396
透	-5397
塞	-5398
弃	-5399
乱	-5400
拟	-5401
狂	-5402
睡	-5403
著	-5404
银	-5405
牙	-5406
套	-5407
迪	-5408
秘	-5409
培	-5410
楼	-5411
氧	-5412
竟	-5413
醒	-5414
脸	-5415
诊	-5416
奏	-5417
退	-5418
草	-5419
阻	-5420
蜂	-5421
款	-5422
麦	-5423
夜	-5424
灭	-5425
秒	-5426
衡	-5427
占	-5428
宗	-5429
迹	-5430
婚	-5431
莱	-5432
针	-5433
忆	-5434
操	-5435
猩	-5436
访	-5437
予	-5438
散	-5439
弄	-5440
毫	-5441
漫	-5442
途	-5443
弱	-5444
脱	-5445
伴	-5446
鼠	-5447
墙	-5448
祖	-5449
尤	-5450
轮	-5451
宝	-5452
授	-5453
「	-5454
鲁	-5455
」	-5456
炸	-5457
燃	-5458
狱	-5459
爸	-5460
票	-5461
衣	-5462
闭	-5463
青	-5464
龙	-5465
偏	-5466
唱	-5467
幕	-5468
浪	-5469
疫	-5470
丝	-5471
液	-5472
牌	-5473
竞	-5474
床	-5475
扩	-5476
猜	-5477
陆	-5478
震	-5479
页	-5480
惧	-5481
勒	-5482
刺	-5483
登	-5484
野	-5485
逐	-5486
狗	-5487
九	-5488
圈	-5489
估	-5490
固	-5491
斗	-5492
鸟	-5493
倾	-5494
宣	-5495
沉	-5496
搜	-5497
旦	-5498
爆	-5499
销	-5500
哦	-5501
忘	-5502
睛	-5503
粉	-5504
糕	-5505
雄	-5506
劳	-5507
恩	-5508
静	-5509
瑞	-5510
障	-5511
盘	-5512
缩	-5513
搞	-5514
仪	-5515
懂	-5516
聪	-5517
雨	-5518
良	-5519
蒂	-5520
彩	-5521
疯	-5522
径	-5523
毛	-5524
延	-5525
繁	-5526
蚁	-5527
旁	-5528
悲	-5529
毕	-5530
您	-5531
黄	-5532
z	-5533
辆	-5534
损	-5535
朗	-5536
嗯	-5537
绕	-5538
迫	-5539
耗	-5540
额	-5541
堆	-5542
库	-5543
符	-5544
袋	-5545
赖	-5546
献	-5547
枪	-5548
滋	-5549
雷	-5550
默	-5551
彼	-5552
苏	-5553
漂	-5554
归	-5555
抱	-5556
耳	-5557
武	-5558
禁	-5559
乳	-5560
厂	-5561
杰	-5562
屏	-5563
烈	-5564
贵	-5565
佛	-5566
腿	-5567
执	-5568
虚	-5569
借	-5570
恰	-5571
礼	-5572
瓦	-5573
聊	-5574
封	-5575
附	-5576
露	-5577
挥	-5578
王	-5579
货	-5580
谓	-5581
辑	-5582
遭	-5583
毁	-5584
胜	-5585
载	-5586
铁	-5587
循	-5588
怖	-5589
急	-5590
松	-5591
泡	-5592
糖	-5593
储	-5594
握	-5595
碰	-5596
吉	-5597
绍	-5598
颜	-5599
龄	-5600
仿	-5601
绪	-5602
隔	-5603
跨	-5604
允	-5605
篇	-5606
购	-5607
箱	-5608
滑	-5609
洗	-5610
碍	-5611
绘	-5612
阅	-5613
审	-5614
弗	-5615
援	-5616
替	-5617
池	-5618
批	-5619
桌	-5620
污	-5621
乌	-5622
婴	-5623
邮	-5624
尾	-5625
灾	-5626
售	-5627
撞	-5628
颗	-5629
恋	-5630
粒	-5631
裂	-5632
驾	-5633
仰	-5634
残	-5635
稳	-5636
慧	-5637
稍	-5638
驶	-5639
抓	-5640
殊	-5641
蒙	-5642
尊	-5643
链	-5644
驱	-5645
促	-5646
贴	-5647
酷	-5648
弟	-5649
忽	-5650
摆	-5651
休	-5652
剂	-5653
赢	-5654
兵	-5655
摩	-5656
椅	-5657
省	-5658
守	-5659
恒	-5660
魔	-5661
惯	-5662
侵	-5663
肥	-5664
俄	-5665
奶	-5666
冒	-5667
签	-5668
荣	-5669
胁	-5670
踪	-5671
废	-5672
既	-5673
陷	-5674
•	-5675
仔	-5676
挺	-5677
丁	-5678
览	-5679
玛	-5680
诸	-5681
迎	-5682
旋	-5683
午	-5684
圆	-5685
扫	-5686
抽	-5687
殖	-5688
逃	-5689
汇	-5690
肢	-5691
副	-5692
岸	-5693
译	-5694
邀	-5695
汗	-5696
余	-5697
碎	-5698
厅	-5699
珊	-5700
雅	-5701
攻	-5702
股	-5703
喝	-5704
肤	-5705
香	-5706
宜	-5707
沟	-5708
烦	-5709
硬	-5710
穆	-5711
慈	-5712
抑	-5713
妻	-5714
彻	-5715
鲜	-5716
邦	-5717
赞	-5718
浮	-5719
秀	-5720
墨	-5721
菜	-5722
丹	-5723
偶	-5724
伸	-5725
朝	-5726
阴	-5727
乔	-5728
蜜	-5729
乡	-5730
帕	-5731
悉	-5732
剩	-5733
缘	-5734
烟	-5735
涉	-5736
烧	-5737
补	-5738
辩	-5739
呆	-5740
扎	-5741
磁	-5742
递	-5743
爬	-5744
苗	-5745
覆	-5746
夏	-5747
丰	-5748
瓶	-5749
忙	-5750
拜	-5751
沃	-5752
盛	-5753
峰	-5754
诞	-5755
乘	-5756
叶	-5757
轨	-5758
瑚	-5759
窗	-5760
邻	-5761
云	-5762
沿	-5763
党	-5764
姐	-5765
孤	-5766
抵	-5767
雪	-5768
猎	-5769
末	-5770
焦	-5771
暖	-5772
戴	-5773
撒	-5774
荷	-5775
鞋	-5776
讶	-5777
捐	-5778
泛	-5779
猫	-5780
若	-5781
菲	-5782
趋	-5783
圾	-5784
垃	-5785
缓	-5786
肿	-5787
凡	-5788
妹	-5789
饮	-5790
乏	-5791
诚	-5792
谱	-5793
扰	-5794
拯	-5795
呈	-5796
胡	-5797
恢	-5798
敢	-5799
跃	-5800
敦	-5801
杯	-5802
瘤	-5803
寿	-5804
桥	-5805
灰	-5806
纯	-5807
雇	-5808
勇	-5809
尖	-5810
徒	-5811
逊	-5812
岩	-5813
琴	-5814
搭	-5815
蚂	-5816
厌	-5817
啦	-5818
艰	-5819
腺	-5820
赋	-5821
饭	-5822
丧	-5823
兄	-5824
偷	-5825
忍	-5826
脉	-5827
噢	-5828
莫	-5829
盒	-5830
镇	-5831
昆	-5832
讯	-5833
振	-5834
洁	-5835
鸡	-5836
欲	-5837
潮	-5838
舒	-5839
钢	-5840
蚊	-5841
雕	-5842
漠	-5843
拒	-5844
羊	-5845
腐	-5846
赚	-5847
袭	-5848
啡	-5849
臂	-5850
迈	-5851
咖	-5852
喷	-5853
肌	-5854
敏	-5855
愈	-5856
翰	-5857
脊	-5858
敌	-5859
矿	-5860
佳	-5861
搬	-5862
酸	-5863
寄	-5864
兹	-5865
械	-5866
丢	-5867
鲨	-5868
季	-5869
怒	-5870
[	-5871
哲	-5872
]	-5873
席	-5874
谎	-5875
迅	-5876
泰	-5877
宽	-5878
荒	-5879
累	-5880
贡	-5881
堡	-5882
措	-5883
叠	-5884
渴	-5885
玻	-5886
耐	-5887
辨	-5888
鲸	-5889
摇	-5890
郁	-5891
霍	-5892
肺	-5893
卷	-5894
孕	-5895
赶	-5896
胶	-5897
映	-5898
甲	-5899
脆	-5900
磨	-5901
幼	-5902
招	-5903
盟	-5904
刷	-5905
杉	-5906
尚	-5907
币	-5908
娜	-5909
犹	-5910
眠	-5911
耍	-5912
昂	-5913
衰	-5914
旗	-5915
庄	-5916
鹅	-5917
猴	-5918
闪	-5919
骗	-5920
侧	-5921
芬	-5922
轴	-5923
摸	-5924
愤	-5925
箭	-5926
净	-5927
壁	-5928
横	-5929
惑	-5930
穴	-5931
刑	-5932
匹	-5933
暂	-5934
嘴	-5935
扔	-5936
截	-5937
珍	-5938
晨	-5939
框	-5940
瞬	-5941
莎	-5942
寸	-5943
孔	-5944
盲	-5945
袖	-5946
豪	-5947
遥	-5948
汉	-5949
祝	-5950
填	-5951
湾	-5952
综	-5953
壮	-5954
敬	-5955
税	-5956
逻	-5957
‘	-5958
隆	-5959
黎	-5960
卢	-5961
扮	-5962
欣	-5963
庞	-5964
插	-5965
莉	-5966
朵	-5967
谋	-5968
/	-5969
矛	-5970
梅	-5971
携	-5972
苹	-5973
践	-5974
委	-5975
丈	-5976
胎	-5977
赏	-5978
滚	-5979
督	-5980
耶	-5981
拼	-5982
澳	-5983
璃	-5984
割	-5985
熊	-5986
诱	-5987
春	-5988
盾	-5989
糊	-5990
涂	-5991
夺	-5992
抛	-5993
拖	-5994
挣	-5995
馈	-5996
哭	-5997
忧	-5998
泥	-5999
纵	-6000
凯	-6001
贷	-6002
’	-6003
桑	-6004
漏	-6005
奴	-6006
申	-6007
蛛	-6008
询	-6009
骑	-6010
纤	-6011
羞	-6012
庆	-6013
欺	-6014
绩	-6015
脂	-6016
裁	-6017
迁	-6018
哇	-6019
勃	-6020
叙	-6021
籍	-6022
薄	-6023
崩	-6024
蹈	-6025
'	-6026
刀	-6027
挂	-6028
淡	-6029
猪	-6030
钻	-6031
嘛	-6032
梯	-6033
厨	-6034
档	-6035
胖	-6036
遵	-6037
饥	-6038
饿	-6039
鼻	-6040
揭	-6041
磅	-6042
阵	-6043
─	-6044
喻	-6045
戈	-6046
渔	-6047
肃	-6048
髓	-6049
厚	-6050
牧	-6051
吓	-6052
罚	-6053
蠢	-6054
辛	-6055
陌	-6056
姻	-6057
帐	-6058
昨	-6059
疼	-6060
挖	-6061
肩	-6062
贸	-6063
陈	-6064
筹	-6065
晰	-6066
膜	-6067
悬	-6068
卵	-6069
叹	-6070
呀	-6071
扬	-6072
歧	-6073
疟	-6074
掘	-6075
泄	-6076
柱	-6077
滴	-6078
纹	-6079
罕	-6080
蝇	-6081
孙	-6082
田	-6083
违	-6084
逆	-6085
q	-6086
捉	-6087
杆	-6088
瑟	-6089
矶	-6090
返	-6091
尿	-6092
豚	-6093
饰	-6094
喂	-6095
恨	-6096
壳	-6097
萄	-6098
葡	-6099
宾	-6100
愚	-6101
吹	-6102
胸	-6103
伐	-6104
炎	-6105
辈	-6106
擅	-6107
湖	-6108
盗	-6109
粗	-6110
央	-6111
灌	-6112
膀	-6113
貌	-6114
锁	-6115
伍	-6116
礁	-6117
齿	-6118
桶	-6119
冠	-6120
踏	-6121
魂	-6122
剪	-6123
宫	-6124
弯	-6125
煤	-6126
租	-6127
赫	-6128
歉	-6129
齐	-6130
哺	-6131
惨	-6132
氢	-6133
泳	-6134
牢	-6135
鬼	-6136
氏	-6137
滤	-6138
芝	-6139
愉	-6140
擎	-6141
泽	-6142
滩	-6143
腊	-6144
催	-6145
册	-6146
渡	-6147
订	-6148
嘿	-6149
壤	-6150
廉	-6151
涌	-6152
粘	-6153
茨	-6154
隶	-6155
豆	-6156
冻	-6157
溃	-6158
牲	-6159
骤	-6160
浏	-6161
吨	-6162
囚	-6163
夸	-6164
娱	-6165
津	-6166
浓	-6167
稀	-6168
川	-6169
栖	-6170
详	-6171
凌	-6172
拆	-6173
账	-6174
醉	-6175
雌	-6176
兽	-6177
凝	-6178
叔	-6179
喊	-6180
琳	-6181
胆	-6182
虎	-6183
沮	-6184
祸	-6185
翼	-6186
凭	-6187
屠	-6188
弦	-6189
挤	-6190
晶	-6191
扭	-6192
薪	-6193
辱	-6194
溯	-6195
绳	-6196
饼	-6197
京	-6198
刊	-6199
召	-6200
坡	-6201
润	-6202
炼	-6203
睹	-6204
芯	-6205
茶	-6206
俱	-6207
悦	-6208
汤	-6209
港	-6210
署	-6211
肠	-6212
藻	-6213
魅	-6214
厕	-6215
噪	-6216
怨	-6217
粮	-6218
艘	-6219
闲	-6220
佩	-6221
兆	-6222
抢	-6223
栋	-6224
滥	-6225
甜	-6226
蓄	-6227
躺	-6228
鸦	-6229
埋	-6230
烤	-6231
詹	-6232
祷	-6233
辅	-6234
颠	-6235
畏	-6236
竭	-6237
幽	-6238
叉	-6239
妮	-6240
甘	-6241
痴	-6242
瘾	-6243
躲	-6244
辐	-6245
冬	-6246
宏	-6247
寒	-6248
挡	-6249
棵	-6250
盐	-6251
铺	-6252
尘	-6253
紫	-6254
肝	-6255
寓	-6256
狼	-6257
珠	-6258
缝	-6259
荡	-6260
螺	-6261
傻	-6262
劲	-6263
堵	-6264
拔	-6265
湿	-6266
猛	-6267
番	-6268
祈	-6269
骼	-6270
姿	-6271
惩	-6272
挪	-6273
俗	-6274
剥	-6275
堪	-6276
奔	-6277
廊	-6278
慰	-6279
栏	-6280
蒸	-6281
虐	-6282
撑	-6283
绑	-6284
罐	-6285
裔	-6286
鸣	-6287
伞	-6288
削	-6289
怜	-6290
讽	-6291
酱	-6292
荧	-6293
赌	-6294
逝	-6295
烂	-6296
胀	-6297
辞	-6298
郊	-6299
卓	-6300
吻	-6301
柏	-6302
蜘	-6303
誉	-6304
赠	-6305
孟	-6306
柔	-6307
耻	-6308
宁	-6309
涯	-6310
牺	-6311
迟	-6312
鉴	-6313
仁	-6314
佣	-6315
债	-6316
尸	-6317
斑	-6318
杜	-6319
粪	-6320
螂	-6321
伏	-6322
唤	-6323
垂	-6324
皇	-6325
衷	-6326
蝠	-6327
浸	-6328
贩	-6329
阐	-6330
饱	-6331
巢	-6332
钮	-6333
倡	-6334
傲	-6335
抬	-6336
歇	-6337
爷	-6338
玉	-6339
砍	-6340
惜	-6341
硅	-6342
雾	-6343
侣	-6344
厉	-6345
址	-6346
摧	-6347
旺	-6348
添	-6349
皆	-6350
篮	-6351
粹	-6352
蝙	-6353
豹	-6354
敲	-6355
纷	-6356
裤	-6357
囊	-6358
役	-6359
斥	-6360
瞧	-6361
膝	-6362
谜	-6363
韩	-6364
坞	-6365
泪	-6366
鲍	-6367
伽	-6368
俩	-6369
瓜	-6370
蛇	-6371
捷	-6372
旨	-6373
畅	-6374
舍	-6375
蛙	-6376
井	-6377
墓	-6378
崇	-6379
帽	-6380
膨	-6381
・	-6382
丛	-6383
擦	-6384
斜	-6385
腹	-6386
串	-6387
亦	-6388
匿	-6389
悟	-6390
憾	-6391
谐	-6392
攀	-6393
棉	-6394
闹	-6395
惠	-6396
兼	-6397
朱	-6398
炭	-6399
牵	-6400
狮	-6401
痕	-6402
肪	-6403
阔	-6404
丑	-6405
盈	-6406
赤	-6407
逼	-6408
忠	-6409
浴	-6410
窟	-6411
贯	-6412
劣	-6413
吞	-6414
拓	-6415
爵	-6416
耀	-6417
苍	-6418
丘	-6419
奉	-6420
扇	-6421
旱	-6422
虾	-6423
邪	-6424
黏	-6425
奸	-6426
橡	-6427
盯	-6428
稿	-6429
纠	-6430
衍	-6431
峡	-6432
拨	-6433
枝	-6434
谨	-6435
厘	-6436
榜	-6437
陪	-6438
岗	-6439
挽	-6440
摔	-6441
疲	-6442
砖	-6443
罩	-6444
剑	-6445
涵	-6446
翅	-6447
&	-6448
啤	-6449
涨	-6450
笨	-6451
腔	-6452
腾	-6453
瘫	-6454
艇	-6455
贾	-6456
募	-6457
宿	-6458
毯	-6459
肖	-6460
臭	-6461
契	-6462
妥	-6463
巾	-6464
浅	-6465
抚	-6466
棕	-6467
烹	-6468
韦	-6469
嗨	-6470
嘲	-6471
戒	-6472
掩	-6473
夹	-6474
姓	-6475
御	-6476
聆	-6477
卧	-6478
咨	-6479
姑	-6480
尬	-6481
尴	-6482
悔	-6483
淋	-6484
裕	-6485
【	-6486
】	-6487
勤	-6488
娃	-6489
廷	-6490
蔓	-6491
亨	-6492
伪	-6493
笼	-6494
剖	-6495
吐	-6496
柜	-6497
濒	-6498
葬	-6499
遮	-6500
~	-6501
汁	-6502
蕾	-6503
娘	-6504
婆	-6505
捞	-6506
斤	-6507
柯	-6508
泉	-6509
冥	-6510
哨	-6511
弊	-6512
彗	-6513
忌	-6514
耕	-6515
胃	-6516
蚀	-6517
跌	-6518
骄	-6519
垫	-6520
弥	-6521
晓	-6522
梁	-6523
蔬	-6524
霉	-6525
颂	-6526
啥	-6527
胰	-6528
舱	-6529
轰	-6530
鸽	-6531
恼	-6532
慌	-6533
押	-6534
燥	-6535
狭	-6536
痹	-6537
矩	-6538
呃	-6539
奈	-6540
宰	-6541
慨	-6542
撕	-6543
李	-6544
泊	-6545
罢	-6546
贪	-6547
卑	-6548
叛	-6549
扣	-6550
裸	-6551
劫	-6552
撼	-6553
渠	-6554
磷	-6555
饪	-6556
咬	-6557
屁	-6558
梭	-6559
烷	-6560
萤	-6561
鹰	-6562
嵌	-6563
慎	-6564
昏	-6565
篷	-6566
蜡	-6567
驼	-6568
仓	-6569
屈	-6570
棍	-6571
肾	-6572
裹	-6573
挨	-6574
痪	-6575
睁	-6576
胺	-6577
菇	-6578
钉	-6579
颈	-6580
匠	-6581
君	-6582
喔	-6583
奢	-6584
抖	-6585
沫	-6586
渗	-6587
猿	-6588
秩	-6589
谬	-6590
偿	-6591
塌	-6592
疏	-6593
硫	-6594
窃	-6595
翔	-6596
鹿	-6597
夷	-6598
碑	-6599
筒	-6600
肚	-6601
逮	-6602
凑	-6603
凶	-6604
株	-6605
氮	-6606
洪	-6607
皂	-6608
‧	-6609
厄	-6610
吁	-6611
姥	-6612
棘	-6613
漆	-6614
砸	-6615
蘑	-6616
踢	-6617
铜	-6618
啸	-6619
坑	-6620
宪	-6621
枯	-6622
锐	-6623
蕴	-6624
蛮	-6625
厦	-6626
掠	-6627
沼	-6628
笛	-6629
舌	-6630
芭	-6631
觅	-6632
诈	-6633
颇	-6634
飓	-6635
亏	-6636
唐	-6637
坠	-6638
宅	-6639
悄	-6640
扯	-6641
椎	-6642
醇	-6643
勾	-6644
晃	-6645
棋	-6646
琼	-6647
矮	-6648
竹	-6649
缆	-6650
酶	-6651
颤	-6652
骚	-6653
殿	-6654
窝	-6655
锋	-6656
韧	-6657
驻	-6658
仑	-6659
喘	-6660
巡	-6661
慷	-6662
拾	-6663
滞	-6664
筋	-6665
绵	-6666
钥	-6667
呐	-6668
摘	-6669
溶	-6670
爽	-6671
碗	-6672
缠	-6673
讼	-6674
陶	-6675
鳄	-6676
兔	-6677
坛	-6678
寺	-6679
披	-6680
抹	-6681
枚	-6682
秋	-6683
聘	-6684
酪	-6685
酬	-6686
铅	-6687
鸭	-6688
龟	-6689
券	-6690
匙	-6691
崭	-6692
愧	-6693
撤	-6694
糙	-6695
飘	-6696
–	-6697
妨	-6698
宠	-6699
寂	-6700
惹	-6701
涡	-6702
淫	-6703
炉	-6704
甸	-6705
荐	-6706
蜗	-6707
贿	-6708
倦	-6709
喀	-6710
拳	-6711
挫	-6712
淹	-6713
腕	-6714
趾	-6715
辉	-6716
饲	-6717
仇	-6718
崛	-6719
榄	-6720
橄	-6721
踩	-6722
乙	-6723
崖	-6724
氛	-6725
溜	-6726
稣	-6727
薯	-6728
躯	-6729
隙	-6730
僵	-6731
删	-6732
吵	-6733
喇	-6734
嫩	-6735
弓	-6736
柴	-6737
橙	-6738
茎	-6739
谦	-6740
镑	-6741
凉	-6742
壶	-6743
扶	-6744
撰	-6745
葛	-6746
鳍	-6747
侦	-6748
僚	-6749
卜	-6750
县	-6751
垮	-6752
屿	-6753
帆	-6754
悯	-6755
扑	-6756
拇	-6757
泣	-6758
溪	-6759
瓷	-6760
缚	-6761
翁	-6762
蟑	-6763
衫	-6764
谅	-6765
骂	-6766
鸿	-6767
哒	-6768
抉	-6769
汀	-6770
狄	-6771
畜	-6772
盆	-6773
眉	-6774
瞄	-6775
羽	-6776
腰	-6777
钩	-6778
骆	-6779
丸	-6780
诠	-6781
垒	-6782
宴	-6783
悠	-6784
敞	-6785
膊	-6786
蔽	-6787
诀	-6788
酵	-6789
锻	-6790
庇	-6791
庙	-6792
拐	-6793
桃	-6794
欠	-6795
砂	-6796
胳	-6797
咒	-6798
帜	-6799
泌	-6800
牠	-6801
硕	-6802
肆	-6803
芒	-6804
董	-6805
雀	-6806
俯	-6807
吊	-6808
坟	-6809
娅	-6810
搏	-6811
泵	-6812
浇	-6813
澡	-6814
皱	-6815
裙	-6816
辜	-6817
闷	-6818
呵	-6819
拘	-6820
捡	-6821
烛	-6822
窄	-6823
芽	-6824
茫	-6825
蕉	-6826
蝶	-6827
衬	-6828
颖	-6829
洒	-6830
禽	-6831
铃	-6832
陋	-6833
颁	-6834
仙	-6835
嫁	-6836
慕	-6837
淘	-6838
纱	-6839
蟹	-6840
隧	-6841
亩	-6842
侠	-6843
捏	-6844
桨	-6845
筛	-6846
誓	-6847
譬	-6848
趟	-6849
刹	-6850
夕	-6851
斐	-6852
杠	-6853
铸	-6854
锅	-6855
咱	-6856
庸	-6857
晕	-6858
爪	-6859
舟	-6860
萧	-6861
貘	-6862
躁	-6863
遣	-6864
铭	-6865
韵	-6866
嗅	-6867
戚	-6868
搅	-6869
炮	-6870
砰	-6871
碱	-6872
膏	-6873
蓬	-6874
藉	-6875
衔	-6876
～	-6877
哀	-6878
妓	-6879
晒	-6880
棚	-6881
氨	-6882
沾	-6883
涅	-6884
萎	-6885
冈	-6886
坎	-6887
峻	-6888
徙	-6889
枢	-6890
浩	-6891
淀	-6892
犬	-6893
狠	-6894
琐	-6895
迄	-6896
钞	-6897
霸	-6898
顽	-6899
―	-6900
咪	-6901
哮	-6902
噬	-6903
恤	-6904
瓣	-6905
畴	-6906
皿	-6907
盔	-6908
竖	-6909
蜣	-6910
乃	-6911
堕	-6912
墟	-6913
嫉	-6914
届	-6915
懒	-6916
扼	-6917
浑	-6918
纺	-6919
胚	-6920
萝	-6921
赐	-6922
驳	-6923
挠	-6924
眨	-6925
莓	-6926
谊	-6927
侈	-6928
函	-6929
匆	-6930
嘉	-6931
噩	-6932
姨	-6933
斧	-6934
煮	-6935
瘦	-6936
苯	-6937
贼	-6938
颅	-6939
饶	-6940
+	-6941
凸	-6942
刮	-6943
掷	-6944
撇	-6945
熵	-6946
稽	-6947
窍	-6948
筝	-6949
簧	-6950
绒	-6951
雏	-6952
骸	-6953
剔	-6954
哩	-6955
妆	-6956
嬉	-6957
悖	-6958
炒	-6959
疚	-6960
癫	-6961
赎	-6962
佐	-6963
侄	-6964
寨	-6965
弈	-6966
抄	-6967
狩	-6968
珀	-6969
稻	-6970
绞	-6971
缅	-6972
缸	-6973
茄	-6974
贺	-6975
佑	-6976
唇	-6977
巷	-6978
憎	-6979
椰	-6980
焰	-6981
熔	-6982
熬	-6983
痢	-6984
碟	-6985
蜓	-6986
蜻	-6987
诡	-6988
辍	-6989
酋	-6990
钓	-6991
锡	-6992
塘	-6993
履	-6994
廓	-6995
捆	-6996
栅	-6997
浆	-6998
渊	-6999
溉	-7000
溢	-7001
瀑	-7002
煌	-7003
琢	-7004
耸	-7005
螨	-7006
锯	-7007
卸	-7008
摊	-7009
朽	-7010
碌	-7011
脖	-7012
侮	-7013
匪	-7014
幢	-7015
柬	-7016
槽	-7017
甩	-7018
阁	-7019
陵	-7020
勉	-7021
喉	-7022
坪	-7023
妒	-7024
婪	-7025
栽	-7026
榈	-7027
渺	-7028
烯	-7029
痫	-7030
盼	-7031
虔	-7032
袜	-7033
靴	-7034
驰	-7035
咸	-7036
嘘	-7037
嚼	-7038
坊	-7039
娶	-7040
扁	-7041
挚	-7042
掏	-7043
棱	-7044
渣	-7045
滨	-7046
炫	-7047
痒	-7048
祭	-7049
藤	-7050
蠕	-7051
辣	-7052
铝	-7053
阱	-7054
顷	-7055
驯	-7056
奎	-7057
拦	-7058
沸	-7059
烁	-7060
焚	-7061
犸	-7062
秃	-7063
窥	-7064
豫	-7065
逗	-7066
«	-7067
»	-7068
仗	-7069
僧	-7070
勘	-7071
埔	-7072
巫	-7073
栓	-7074
氦	-7075
溺	-7076
烘	-7077
玫	-7078
碧	-7079
舅	-7080
舰	-7081
蛎	-7082
贬	-7083
酿	-7084
闯	-7085
嘈	-7086
坝	-7087
婷	-7088
懈	-7089
拽	-7090
於	-7091
橘	-7092
獾	-7093
疤	-7094
纬	-7095
肘	-7096
艳	-7097
虹	-7098
谴	-7099
逛	-7100
酯	-7101
#	-7102
劝	-7103
匈	-7104
恕	-7105
戮	-7106
殴	-7107
肮	-7108
贤	-7109
逸	-7110
锤	-7111
陡	-7112
黛	-7113
僻	-7114
刘	-7115
叭	-7116
哎	-7117
掀	-7118
摒	-7119
桩	-7120
椒	-7121
泻	-7122
牡	-7123
狸	-7124
瞎	-7125
馅	-7126
髋	-7127
刃	-7128
叮	-7129
呜	-7130
拷	-7131
捣	-7132
槛	-7133
跤	-7134
辟	-7135
骇	-7136
凿	-7137
妄	-7138
嫌	-7139
孢	-7140
巅	-7141
弧	-7142
旷	-7143
汰	-7144
泼	-7145
淆	-7146
潘	-7147
燕	-7148
疆	-7149
绎	-7150
葱	-7151
蝴	-7152
诫	-7153
赂	-7154
趁	-7155
逾	-7156
钙	-7157
饵	-7158
驭	-7159
垄	-7160
後	-7161
恻	-7162
毋	-7163
汲	-7164
澄	-7165
熄	-7166
瞰	-7167
绷	-7168
薇	-7169
螈	-7170
袍	-7171
诵	-7172
谣	-7173
鄂	-7174
陀	-7175
鞭	-7176
=	-7177
咳	-7178
圭	-7179
寡	-7180
恭	-7181
恳	-7182
捍	-7183
搁	-7184
栩	-7185
沥	-7186
瑰	-7187
祥	-7188
稚	-7189
稠	-7190
芥	-7191
蹲	-7192
辖	-7193
铲	-7194
魁	-7195
°	-7196
丙	-7197
倚	-7198
匮	-7199
咯	-7200
昧	-7201
柄	-7202
梳	-7203
翠	-7204
臣	-7205
蹦	-7206
陨	-7207
麽	-7208
亭	-7209
厢	-7210
峭	-7211
帅	-7212
帘	-7213
惫	-7214
拙	-7215
橱	-7216
毅	-7217
沛	-7218
浦	-7219
淑	-7220
犀	-7221
疹	-7222
睾	-7223
矫	-7224
簿	-7225
缪	-7226
萌	-7227
蝾	-7228
亥	-7229
冯	-7230
吱	-7231
坍	-7232
惰	-7233
杏	-7234
汪	-7235
煎	-7236
禧	-7237
芳	-7238
苛	-7239
茅	-7240
螃	-7241
褶	-7242
迦	-7243
钦	-7244
_	-7245
侯	-7246
匀	-7247
吼	-7248
咀	-7249
咽	-7250
嘻	-7251
奠	-7252
屑	-7253
帧	-7254
扉	-7255
拱	-7256
昭	-7257
晋	-7258
曝	-7259
枕	-7260
殆	-7261
碾	-7262
紊	-7263
纲	-7264
绸	-7265
谚	-7266
郎	-7267
鄙	-7268
铀	-7269
颚	-7270
嘟	-7271
孵	-7272
徽	-7273
恍	-7274
暑	-7275
沦	-7276
涸	-7277
漩	-7278
癖	-7279
稼	-7280
绅	-7281
腻	-7282
茜	-7283
蛾	-7284
贮	-7285
赴	-7286
轿	-7287
辙	-7288
遏	-7289
锈	-7290
锥	-7291
霜	-7292
鲑	-7293
乞	-7294
凤	-7295
堤	-7296
帖	-7297
徊	-7298
徘	-7299
怯	-7300
杖	-7301
椭	-7302
烩	-7303
烫	-7304
睫	-7305
瞒	-7306
罹	-7307
羚	-7308
茸	-7309
郡	-7310
锦	-7311
阀	-7312
@	-7313
俘	-7314
吟	-7315
呕	-7316
咙	-7317
唔	-7318
屡	-7319
悼	-7320
惕	-7321
搐	-7322
昔	-7323
氯	-7324
涩	-7325
瘟	-7326
盏	-7327
缔	-7328
缴	-7329
芦	-7330
荫	-7331
赔	-7332
跋	-7333
辰	-7334
锂	-7335
镖	-7336
®	-7337
乍	-7338
嚷	-7339
夭	-7340
屎	-7341
岂	-7342
岌	-7343
拌	-7344
捧	-7345
旭	-7346
杨	-7347
梵	-7348
榨	-7349
橇	-7350
淇	-7351
瑜	-7352
禅	-7353
穹	-7354
篱	-7355
肋	-7356
菩	-7357
蔑	-7358
蚕	-7359
蚪	-7360
蝌	-7361
贱	-7362
隘	-7363
颞	-7364
亟	-7365
兑	-7366
剃	-7367
哼	-7368
忱	-7369
悚	-7370
朴	-7371
歪	-7372
汐	-7373
江	-7374
淌	-7375
滔	-7376
瀚	-7377
瑕	-7378
绣	-7379
腌	-7380
腥	-7381
芙	-7382
苔	-7383
莲	-7384
萦	-7385
螳	-7386
跪	-7387
郑	-7388
酗	-7389
鼎	-7390
乖	-7391
倘	-7392
兜	-7393
忡	-7394
扪	-7395
斩	-7396
灶	-7397
疮	-7398
瞻	-7399
纂	-7400
胱	-7401
脾	-7402
茂	-7403
迭	-7404
靶	-7405
髦	-7406
鳕	-7407
鼬	-7408
⁄	-7409
侍	-7410
冗	-7411
卿	-7412
咎	-7413
喧	-7414
垢	-7415
岔	-7416
崽	-7417
彭	-7418
昼	-7419
晤	-7420
柠	-7421
檬	-7422
沐	-7423
渲	-7424
疵	-7425
腋	-7426
蜷	-7427
铐	-7428
镁	-7429
鹦	-7430
仆	-7431
凰	-7432
哄	-7433
哔	-7434
嗒	-7435
嗜	-7436
噗	-7437
媲	-7438
對	-7439
彷	-7440
惚	-7441
憋	-7442
憧	-7443
憬	-7444
戳	-7445
拢	-7446
拭	-7447
揣	-7448
昵	-7449
曙	-7450
柳	-7451
柿	-7452
湛	-7453
灼	-7454
狐	-7455
狡	-7456
猖	-7457
盎	-7458
瞪	-7459
砌	-7460
羡	-7461
舵	-7462
荼	-7463
藓	-7464
蜥	-7465
诅	-7466
跷	-7467
蹄	-7468
锢	-7469
鱿	-7470
鳗	-7471
〉	-7472
來	-7473
侏	-7474
凹	-7475
哑	-7476
嗡	-7477
娩	-7478
悍	-7479
愁	-7480
懦	-7481
扛	-7482
斋	-7483
晾	-7484
梗	-7485
槟	-7486
毗	-7487
毙	-7488
沒	-7489
灿	-7490
焊	-7491
玄	-7492
瞩	-7493
窒	-7494
竿	-7495
簇	-7496
绊	-7497
翩	-7498
聋	-7499
肴	-7500
臀	-7501
舆	-7502
葵	-7503
藩	-7504
褪	-7505
逢	-7506
邓	-7507
飙	-7508
〈	-7509
佼	-7510
凳	-7511
咚	-7512
嚣	-7513
岭	-7514
崎	-7515
拧	-7516
撮	-7517
晴	-7518
洽	-7519
煽	-7520
猝	-7521
猾	-7522
痊	-7523
瘠	-7524
眩	-7525
硝	-7526
祉	-7527
籽	-7528
腓	-7529
菊	-7530
蔗	-7531
蛆	-7532
袤	-7533
褐	-7534
谛	-7535
赁	-7536
迥	-7537
酌	-7538
酮	-7539
钝	-7540
佬	-7541
勿	-7542
唧	-7543
啄	-7544
嗽	-7545
嘎	-7546
嚏	-7547
囱	-7548
姬	-7549
宛	-7550
寐	-7551
惶	-7552
攒	-7553
汹	-7554
涕	-7555
涤	-7556
渍	-7557
焕	-7558
熏	-7559
獗	-7560
睦	-7561
窜	-7562
筏	-7563
缀	-7564
缕	-7565
膛	-7566
茱	-7567
贞	-7568
轶	-7569
酝	-7570
钾	-7571
阈	-7572
驴	-7573
鬣	-7574
魄	-7575
勺	-7576
嘱	-7577
奄	-7578
奧	-7579
婉	-7580
孝	-7581
彰	-7582
慑	-7583
扳	-7584
抒	-7585
掺	-7586
晦	-7587
畸	-7588
穗	-7589
笆	-7590
蟀	-7591
蟋	-7592
诃	-7593
迸	-7594
鞍	-7595
颊	-7596
鹉	-7597
$	-7598
é	-7599
⋯	-7600
俾	-7601
們	-7602
咐	-7603
啪	-7604
啮	-7605
嗓	-7606
嘀	-7607
嘶	-7608
圳	-7609
姜	-7610
媚	-7611
孰	-7612
岖	-7613
揉	-7614
揪	-7615
棺	-7616
沌	-7617
炽	-7618
瞥	-7619
箴	-7620
绽	-7621
菠	-7622
萃	-7623
蜴	-7624
遨	-7625
闸	-7626
陛	-7627
á	-7628
伺	-7629
儒	-7630
勋	-7631
叨	-7632
唾	-7633
嗝	-7634
妖	-7635
巩	-7636
拴	-7637
棠	-7638
檐	-7639
澈	-7640
澜	-7641
烙	-7642
琥	-7643
睐	-7644
睬	-7645
矢	-7646
秉	-7647
篝	-7648
粥	-7649
缉	-7650
膳	-7651
舔	-7652
葫	-7653
蒿	-7654
蚜	-7655
蛤	-7656
衅	-7657
诧	-7658
赝	-7659
踝	-7660
躬	-7661
這	-7662
钛	-7663
钳	-7664
鳃	-7665
鳞	-7666
麼	-7667
侥	-7668
俚	-7669
倭	-7670
卤	-7671
卦	-7672
呻	-7673
唉	-7674
墅	-7675
妳	-7676
媛	-7677
惭	-7678
懊	-7679
摞	-7680
攫	-7681
浊	-7682
溅	-7683
犁	-7684
睿	-7685
窘	-7686
篡	-7687
維	-7688
芜	-7689
苟	-7690
茁	-7691
茧	-7692
蚱	-7693
蜢	-7694
讳	-7695
谍	-7696
谤	-7697
赘	-7698
趴	-7699
遛	-7700
铛	-7701
镀	-7702
镶	-7703
阂	-7704
靡	-7705
骰	-7706
丶	-7707
侃	-7708
劈	-7709
叼	-7710
呎	-7711
咔	-7712
咕	-7713
咻	-7714
唬	-7715
姚	-7716
宵	-7717
寞	-7718
將	-7719
岳	-7720
幌	-7721
徳	-7722
怡	-7723
攸	-7724
昌	-7725
桅	-7726
楷	-7727
榴	-7728
檀	-7729
洼	-7730
炊	-7731
爹	-7732
甄	-7733
疽	-7734
祀	-7735
笋	-7736
翱	-7737
薛	-7738
蛞	-7739
蝓	-7740
诽	-7741
谭	-7742
贻	-7743
赦	-7744
辽	-7745
钽	-7746
镭	-7747
鞠	-7748
黯	-7749
*	-7750
©	-7751
▪	-7752
俏	-7753
傍	-7754
咄	-7755
咋	-7756
唠	-7757
娇	-7758
尉	-7759
屉	-7760
峙	-7761
弛	-7762
恙	-7763
抨	-7764
拂	-7765
拣	-7766
挟	-7767
捅	-7768
搓	-7769
曳	-7770
氓	-7771
潦	-7772
為	-7773
煞	-7774
牟	-7775
畔	-7776
痰	-7777
眷	-7778
砾	-7779
秤	-7780
窑	-7781
窖	-7782
筷	-7783
纫	-7784
绚	-7785
耽	-7786
莽	-7787
葆	-7788
蔼	-7789
蝎	-7790
谔	-7791
跛	-7792
鲤	-7793
β	-7794
亵	-7795
兮	-7796
匣	-7797
吩	-7798
吾	-7799
喙	-7800
噜	-7801
垦	-7802
垩	-7803
姊	-7804
婭	-7805
寥	-7806
揍	-7807
撬	-7808
暇	-7809
暮	-7810
會	-7811
栗	-7812
殷	-7813
沧	-7814
涟	-7815
渥	-7816
滕	-7817
漪	-7818
潢	-7819
烬	-7820
熨	-7821
狙	-7822
琉	-7823
眶	-7824
瞌	-7825
矗	-7826
磐	-7827
磺	-7828
缭	-7829
肽	-7830
脓	-7831
舶	-7832
茉	-7833
蒲	-7834
蜒	-7835
蜕	-7836
蜿	-7837
裡	-7838
訇	-7839
谧	-7840
踱	-7841
蹊	-7842
蹩	-7843
辗	-7844
迂	-7845
醋	-7846
醺	-7847
钚	-7848
雯	-7849
霄	-7850
魇	-7851
鲷	-7852
鸥	-7853
ç	-7854
ω	-7855
伎	-7856
俊	-7857
傀	-7858
儡	-7859
刽	-7860
卒	-7861
呤	-7862
咏	-7863
咧	-7864
嚓	-7865
垠	-7866
寝	-7867
彬	-7868
怠	-7869
拄	-7870
拗	-7871
挛	-7872
揽	-7873
旬	-7874
杭	-7875
桂	-7876
桔	-7877
梨	-7878
榭	-7879
毡	-7880
氟	-7881
涓	-7882
淤	-7883
渎	-7884
湃	-7885
潭	-7886
澎	-7887
炙	-7888
玲	-7889
甥	-7890
痉	-7891
痣	-7892
瞠	-7893
磋	-7894
秆	-7895
笃	-7896
箔	-7897
簸	-7898
绦	-7899
肇	-7900
脐	-7901
腱	-7902
蕊	-7903
虱	-7904
蛭	-7905
褂	-7906
讪	-7907
谩	-7908
赃	-7909
踵	-7910
蹋	-7911
蹼	-7912
遂	-7913
酚	-7914
钍	-7915
铂	-7916
锌	-7917
阉	-7918
隼	-7919
霆	-7920
靓	-7921
馏	-7922
馨	-7923
鹤	-7924
『	-7925
』	-7926
乒	-7927
乓	-7928
亢	-7929
仲	-7930
冶	-7931
凄	-7932
吝	-7933
吠	-7934
哟	-7935
唆	-7936
啃	-7937
啼	-7938
嗤	-7939
嘌	-7940
噱	-7941
婶	-7942
巍	-7943
幂	-7944
忏	-7945
惋	-7946
愕	-7947
戛	-7948
挞	-7949
捂	-7950
掰	-7951
敷	-7952
斓	-7953
斟	-7954
曹	-7955
枷	-7956
桡	-7957
楔	-7958
殉	-7959
沁	-7960
淙	-7961
熙	-7962
狒	-7963
甫	-7964
疡	-7965
窿	-7966
竣	-7967
翘	-7968
胥	-7969
腑	-7970
苷	-7971
菱	-7972
葩	-7973
蛰	-7974
蛹	-7975
跚	-7976
蹒	-7977
辫	-7978
逅	-7979
逍	-7980
邂	-7981
酥	-7982
醛	-7983
铠	-7984
锑	-7985
雹	-7986
霓	-7987
颌	-7988
髖	-7989
魏	-7990
鯨	-7991
鲱	-7992
鳝	-7993
£	-7994
ü	-7995
